<unk>	0
<s>	0
</s>	0
.	-3.20814
▁de	-3.52913
▁the	-3.8857
,	-3.94969
▁&	-4.33761
▁la	-4.37023
;	-4.43419
:	-4.4701
▁a	-4.49256
s	-4.49896
▁el	-4.55426
▁to	-4.61494
▁en	-4.9129
▁	-5.0261
▁que	-5.07848
▁of	-5.08834
▁(	-5.16518
▁in	-5.20158
▁se	-5.25845
▁del	-5.27949
)	-5.29006
▁you	-5.30768
▁y	-5.30851
▁is	-5.31742
▁para	-5.32129
▁and	-5.33955
▁un	-5.41189
-	-5.41406
▁los	-5.46601
/	-5.55152
▁%1	-5.57481
▁for	-5.61824
▁una	-5.64271
▁The	-5.7632
▁no	-5.77999
▁las	-5.78156
▁be	-5.88324
▁con	-5.90629
...	-5.92399
▁on	-6.05099
▁can	-6.05302
▁this	-6.06341
▁es	-6.06809
▁will	-6.08007
▁or	-6.08815
▁o	-6.10657
▁not	-6.11463
▁puede	-6.17984
▁El	-6.23897
▁archivo	-6.25682
▁-	-6.2727
▁are	-6.27672
▁that	-6.27899
@	-6.27989
▁file	-6.28094
▁with	-6.31858
▁al	-6.3282
▁por	-6.32913
▁it	-6.33569
_	-6.35572
ing	-6.36863
▁/	-6.38441
▁your	-6.39533
▁«	-6.40346
▁No	-6.40385
▁su	-6.42145
▁La	-6.48824
n	-6.49171
▁kde	-6.52418
▁by	-6.52613
▁from	-6.52979
▁This	-6.53146
'	-6.53308
?	-6.55967
r	-6.57147
▁as	-6.61428
▁Si	-6.61813
t	-6.62473
▁A	-6.62742
a	-6.65011
▁como	-6.65424
▁name	-6.72178
▁está	-6.73685
e	-6.73758
▁si	-6.74471
▁an	-6.77028
d	-6.77315
▁If	-6.79839
Name	-6.80766
▁You	-6.8088
▁kgm	-6.81433
▁use	-6.82694
▁esta	-6.83283
▁have	-6.83443
▁»	-6.83753
▁archivos	-6.84324
▁color	-6.87814
▁lista	-6.89428
▁if	-6.90302
▁más	-6.95159
o	-6.95372
▁all	-6.9639
▁'	-6.99223
▁este	-6.99785
).	-7.04423
▁nombre	-7.05691
▁which	-7.08741
▁sobre	-7.09875
es	-7.11123
▁at	-7.1126
▁opción	-7.13181
▁%2	-7.13647
▁texto	-7.15715
▁list	-7.1572
▁Ctrl	-7.16077
▁ha	-7.16218
▁KDE	-7.16462
▁new	-7.16493
▁le	-7.1797
▁one	-7.17998
▁"	-7.18163
▁want	-7.1827
(	-7.21751
▁when	-7.21975
▁text	-7.22136
▁files	-7.23263
▁dialog	-7.23376
▁datos	-7.24303
▁used	-7.24448
▁C	-7.26562
▁diálogo	-7.28241
▁menú	-7.28302
ed	-7.28339
3	-7.28422
▁window	-7.29873
▁botón	-7.30135
City	-7.31507
▁ventana	-7.31521
▁selected	-7.3165
▁actual	-7.34066
x	-7.34316
▁button	-7.34684
▁option	-7.34704
"	-7.35295
c	-7.3557
▁File	-7.3563
▁org	-7.35931
▁¿	-7.36248
▁Para	-7.36355
▁menu	-7.36549
▁lo	-7.36635
▁barra	-7.36926
▁Mostrar	-7.37397
▁has	-7.37944
;.	-7.41272
▁time	-7.41451
▁current	-7.42094
▁Show	-7.43035
▁1	-7.44702
▁only	-7.44875
▁do	-7.44996
▁To	-7.45103
▁En	-7.45143
y	-7.45484
▁configuración	-7.45941
▁Puede	-7.45981
▁cuando	-7.46201
▁K	-7.46662
▁sistema	-7.47386
▁información	-7.47426
▁set	-7.47796
2	-7.48188
▁carpeta	-7.50327
▁servidor	-7.50761
▁usuario	-7.50878
▁--	-7.51337
▁select	-7.51644
▁Error	-7.5444
▁imagen	-7.55182
▁using	-7.55397
Comment	-7.55771
▁tiene	-7.55849
▁type	-7.56622
▁Se	-7.57197
▁línea	-7.57406
▁Settings	-7.57421
▁error	-7.57716
▁default	-7.57826
▁Un	-7.58166
▁S	-7.58832
▁forma	-7.59818
▁user	-7.59833
▁todos	-7.59955
b	-7.60503
▁tipo	-7.60504
▁information	-7.61383
▁ser	-7.61389
▁Use	-7.62378
▁folder	-7.62537
▁number	-7.63957
▁herramientas	-7.64997
▁In	-7.65789
▁2	-7.65973
info	-7.66154
▁Select	-7.66724
▁any	-7.66779
▁should	-7.67389
▁Por	-7.67559
▁I	-7.67633
▁com	-7.67783
▁New	-7.67926
▁system	-7.68781
▁image	-7.69133
▁Esta	-7.69612
▁data	-7.69752
▁desde	-7.70348
▁Los	-7.70683
▁server	-7.70981
▁other	-7.71003
▁more	-7.71045
▁nuevo	-7.71229
▁@	-7.71308
▁e	-7.7261
▁line	-7.72714
▁mail	-7.73273
▁URL	-7.7328
▁k	-7.73665
▁also	-7.7403
▁command	-7.74231
▁pantalla	-7.74852
▁sus	-7.75768
▁valor	-7.75833
▁Preferencias	-7.76475
do	-7.76757
▁>	-7.77026
▁P	-7.77541
▁orden	-7.77975
▁F	-7.78424
▁click	-7.78846
▁correo	-7.79102
▁cada	-7.79317
▁Este	-7.79569
er	-7.79745
▁may	-7.80259
▁son	-7.80378
▁vista	-7.80448
▁número	-7.80828
i	-7.80903
▁but	-7.81387
▁message	-7.81409
▁página	-7.81497
▁muestra	-7.81594
▁modo	-7.81665
▁usar	-7.81676
▁into	-7.82059
▁opciones	-7.82059
▁Color	-7.82305
▁up	-7.82537
▁change	-7.83054
ndo	-7.83606
▁permite	-7.8442
▁choose	-7.85239
▁parte	-7.85276
▁open	-7.85587
▁key	-7.85633
se	-7.86061
▁then	-7.86311
▁X	-7.86715
▁Archivo	-7.86841
▁does	-7.86942
▁box	-7.8733
▁value	-7.87333
▁them	-7.87452
!	-7.87458
▁View	-7.87738
▁local	-7.87849
▁start	-7.87879
▁mensaje	-7.88123
▁here	-7.88237
▁available	-7.88538
▁ejemplo	-7.88678
▁todas	-7.88847
;,	-7.8888
▁document	-7.88969
▁sin	-7.89016
▁Edit	-7.8939
▁Do	-7.89476
▁allow	-7.89566
▁view	-7.89705
▁R	-7.89711
▁It	-7.90566
▁Add	-7.90625
▁right	-7.9123
▁B	-7.91492
1	-7.91541
▁elemento	-7.92552
▁http	-7.92676
▁editor	-7.93031
▁debe	-7.93427
▁documento	-7.93763
▁CD	-7.93798
▁».	-7.93925
▁page	-7.93979
▁web	-7.94073
▁settings	-7.94495
▁first	-7.9487
▁lt	-7.95125
▁pueden	-7.95208
▁Your	-7.95247
▁display	-7.95734
▁When	-7.95889
▁3	-7.95996
▁Please	-7.9612
▁some	-7.96175
▁desea	-7.96759
▁Añadir	-7.96865
▁nueva	-7.97049
▁konqueror	-7.97234
▁so	-7.97283
▁Las	-7.97326
▁juego	-7.97817
▁0	-7.97915
=	-7.98086
▁cambiar	-7.98241
▁x	-7.9857
▁pero	-7.98582
▁hay	-7.98688
▁entrada	-7.98752
▁game	-7.98956
▁utilizar	-7.99298
▁Configurar	-7.99732
4	-7.999
▁aplicación	-8.00295
▁was	-8.00321
▁application	-8.00358
▁Configure	-8.01183
▁options	-8.02181
▁ratón	-8.02846
▁need	-8.02996
▁item	-8.03258
▁mode	-8.03268
▁vez	-8.03498
▁Name	-8.03672
▁Editar	-8.03723
),	-8.03919
▁configuration	-8.04423
▁base	-8.04919
▁For	-8.05093
▁letra	-8.05742
▁like	-8.05868
▁seleccionar	-8.05879
▁cuenta	-8.06002
▁left	-8.06649
▁example	-8.06772
m	-8.07034
▁también	-8.07176
▁imágenes	-8.07228
▁Nombre	-8.07466
▁automáticamente	-8.07502
▁size	-8.07567
▁Seleccione	-8.07569
▁dos	-8.07626
en	-8.07847
▁mensajes	-8.07934
▁cursor	-8.08166
▁tab	-8.08289
▁each	-8.09153
▁posible	-8.09217
l	-8.10015
▁entre	-8.10048
▁programa	-8.10585
ly	-8.10735
▁aquí	-8.10888
▁E	-8.11114
▁elementos	-8.11283
▁M	-8.11493
▁about	-8.11595
▁tiempo	-8.11725
A	-8.11744
▁Cuando	-8.11875
▁crear	-8.12046
▁siguiente	-8.12433
▁under	-8.12469
▁tamaño	-8.12662
▁see	-8.12682
▁control	-8.13053
▁seleccionado	-8.13101
▁cualquier	-8.13107
▁make	-8.1319
▁create	-8.13459
▁Una	-8.13818
▁red	-8.14101
C	-8.14233
▁principal	-8.14242
▁there	-8.14886
▁Open	-8.14978
▁audio	-8.14986
▁4	-8.15269
▁mostrar	-8.15499
▁sólo	-8.15667
▁D	-8.15702
▁ya	-8.15974
▁Esto	-8.16222
▁add	-8.16412
▁=	-8.16707
▁reproducción	-8.16753
▁%	-8.16869
able	-8.17085
▁hacer	-8.17157
kde	-8.17573
▁two	-8.17954
▁same	-8.1811
▁different	-8.18305
▁n	-8.18713
▁find	-8.18738
in	-8.18928
gt	-8.19682
▁its	-8.19763
▁All	-8.20057
▁OF	-8.20405
▁been	-8.20562
▁program	-8.20698
al	-8.21168
]	-8.21283
▁izquierda	-8.21651
▁órdenes	-8.21959
▁L	-8.21972
▁where	-8.2211
k	-8.22189
▁proyecto	-8.22374
▁función	-8.22514
p	-8.22958
▁Save	-8.23063
▁ver	-8.23065
▁Enter	-8.2332
()	-8.23442
▁check	-8.23509
á	-8.23922
▁found	-8.24137
▁format	-8.24313
▁pulse	-8.24518
▁s	-8.24683
▁Eliminar	-8.25061
▁De	-8.25087
▁mouse	-8.25319
▁derecha	-8.25484
▁Muestra	-8.2606
▁configurar	-8.26146
▁USA	-8.26561
▁nivel	-8.27123
▁podrá	-8.27213
▁[	-8.2735
f	-8.27576
▁function	-8.27868
▁HTML	-8.28146
▁than	-8.2852
▁abrir	-8.28638
▁formato	-8.28699
▁Set	-8.28769
▁p	-8.28942
▁directory	-8.2897
▁TRANSLATORS	-8.29047
▁esto	-8.29487
▁get	-8.29584
▁icon	-8.29892
▁#	-8.30041
BAR	-8.30487
▁address	-8.30597
▁enter	-8.30848
▁etc	-8.30927
▁automatically	-8.31088
▁how	-8.31406
▁grupo	-8.31475
▁estado	-8.31499
▁screen	-8.31538
▁Click	-8.3179
▁solo	-8.32717
▁N	-8.32797
▁dirección	-8.33094
la	-8.33138
title	-8.33205
▁panel	-8.33789
▁must	-8.33972
\	-8.34036
▁dispositivo	-8.34214
▁haya	-8.34559
▁search	-8.3459
▁date	-8.34641
▁añadir	-8.34647
▁salida	-8.34772
▁guardar	-8.34928
▁after	-8.35059
▁group	-8.35196
▁\\	-8.35219
▁device	-8.35266
▁'%1	-8.35548
▁next	-8.35589
ar	-8.35614
▁move	-8.36019
▁escritorio	-8.36033
▁changes	-8.36065
▁messages	-8.36096
▁cannot	-8.36361
▁documentation	-8.3649
▁código	-8.36778
to	-8.36825
▁acceso	-8.37034
▁Remove	-8.37114
▁campo	-8.3721
▁level	-8.37299
▁while	-8.3731
▁help	-8.37672
▁Ver	-8.37782
▁net	-8.38068
▁save	-8.38208
▁show	-8.38449
▁icono	-8.38635
▁contiene	-8.38739
▁mismo	-8.38815
▁cuadro	-8.39187
▁pestaña	-8.39854
lo	-8.39873
▁between	-8.40099
▁General	-8.40204
▁pudo	-8.40564
▁currently	-8.40652
▁seleccione	-8.40824
▁obtener	-8.40828
▁names	-8.40906
▁script	-8.41293
le	-8.41379
▁punto	-8.41477
▁Delete	-8.41527
▁already	-8.42006
▁debería	-8.42044
▁re	-8.42236
▁%3	-8.42263
▁cambios	-8.42276
▁following	-8.4232
or	-8.42321
▁kplayer	-8.42377
▁press	-8.42621
▁otro	-8.42672
▁Text	-8.42698
▁%1.	-8.42903
▁trabajo	-8.4304
▁out	-8.43102
▁entry	-8.43182
▁original	-8.43219
▁usted	-8.43247
▁lugar	-8.43261
▁these	-8.43395
▁support	-8.43456
▁down	-8.43529
▁favor	-8.43538
+	-8.43758
▁O	-8.44397
▁selección	-8.44429
▁Coul	-8.44522
▁Guardar	-8.44576
▁configure	-8.44633
▁main	-8.44674
▁quiere	-8.44735
▁they	-8.44896
▁password	-8.45234
▁búsqueda	-8.45427
▁images	-8.45454
▁field	-8.45461
▁fecha	-8.45633
▁specified	-8.45643
▁column	-8.45704
▁antes	-8.45723
▁clave	-8.45728
▁será	-8.45829
▁section	-8.45844
▁usando	-8.45861
▁project	-8.45945
▁version	-8.45947
▁conexión	-8.46321
D	-8.46631
▁shown	-8.46671
▁before	-8.46717
▁Opciones	-8.47214
▁sección	-8.4742
▁sesión	-8.4775
▁están	-8.47839
▁G	-8.48028
▁normal	-8.49117
ción	-8.49162
▁run	-8.49253
▁There	-8.49481
▁filter	-8.49744
▁Tipo	-8.49837
▁Pulse	-8.49883
action	-8.50188
▁T	-8.5024
▁toolbar	-8.50273
▁desktop	-8.50808
▁contraseña	-8.50998
▁Shift	-8.51155
▁directorio	-8.5132
▁seleccionada	-8.51325
▁Check	-8.51417
▁kmail	-8.51466
g	-8.51629
el	-8.51717
▁source	-8.51893
▁displayed	-8.51993
▁input	-8.52386
▁nbsp	-8.52474
▁existe	-8.52764
▁versión	-8.52957
▁Game	-8.52958
S	-8.53005
▁CUPS	-8.53492
▁"%1"	-8.53535
▁disponibles	-8.53597
▁disponible	-8.5379
optional	-8.53809
▁Introduzca	-8.5402
no	-8.54404
▁Create	-8.54567
▁status	-8.54901
▁contains	-8.5493
▁uno	-8.54943
▁font	-8.54957
▁aplicaciones	-8.55105
▁action	-8.55136
▁way	-8.55155
5	-8.55161
▁Abrir	-8.55553
▁predeterminado	-8.55695
▁tipos	-8.55826
u	-8.55875
▁*.	-8.56358
▁encontrar	-8.5637
▁manual	-8.56523
▁read	-8.56576
▁J	-8.56699
▁Image	-8.56921
item	-8.57343
▁superior	-8.57458
▁items	-8.57514
▁failed	-8.57557
da	-8.57756
▁could	-8.57892
▁mostrará	-8.57994
▁Menu	-8.58091
▁access	-8.58242
▁install	-8.58302
iendo	-8.58326
▁output	-8.58367
▁hora	-8.58447
▁ID	-8.58567
▁setting	-8.58637
▁devuelve	-8.58784
▁most	-8.59046
▁Move	-8.59053
▁hacia	-8.59131
▁predeterminada	-8.59533
mente	-8.59887
▁remove	-8.59957
gmail	-8.60054
▁widget	-8.6011
▁carpetas	-8.60766
▁their	-8.6081
▁Es	-8.60871
▁W	-8.6097
▁esté	-8.61136
▁email	-8.61199
▁what	-8.61559
▁utiliza	-8.61654
v	-8.61756
▁También	-8.61784
▁todo	-8.61818
as	-8.62175
▁Editor	-8.62187
▁vídeo	-8.62229
▁5	-8.62302
▁valores	-8.62338
▁Re	-8.62372
▁just	-8.62518
▁last	-8.62863
▁acción	-8.62969
▁contenido	-8.63065
▁another	-8.63234
▁Usar	-8.63256
▁Seleccionar	-8.63258
▁eliminar	-8.63308
▁Note	-8.63819
▁caracteres	-8.6405
▁hasta	-8.64552
▁necesita	-8.64566
{	-8.64622
▁qué	-8.64674
▁objeto	-8.64753
▁checked	-8.64863
▁Configuración	-8.64878
▁diferentes	-8.65017
▁Al	-8.65088
▁active	-8.65141
▁g	-8.65151
▁bar	-8.65169
▁string	-8.65307
▁top	-8.65314
▁specify	-8.65355
▁colores	-8.65359
▁path	-8.65697
▁tener	-8.6609
▁code	-8.66108
▁fuente	-8.6611
▁u	-8.66323
▁object	-8.66328
▁etiqueta	-8.66487
▁part	-8.66672
▁Cambiar	-8.66992
▁teclado	-8.67017
▁many	-8.67081
▁possible	-8.67208
ó	-8.67251
de	-8.67299
▁network	-8.67314
▁*	-8.67328
▁below	-8.67331
▁posición	-8.67456
▁Sin	-8.67694
▁List	-8.67735
▁such	-8.67777
▁plugin	-8.67879
▁estándar	-8.68107
▁given	-8.68124
▁IP	-8.68146
▁order	-8.68296
▁fondo	-8.68362
▁otra	-8.68392
▁casilla	-8.68603
▁take	-8.68666
▁XML	-8.68732
ada	-8.68937
▁shows	-8.69153
▁selection	-8.69165
▁edit	-8.69359
▁work	-8.69401
▁Type	-8.69593
▁registro	-8.69624
▁usa	-8.6983
▁clicking	-8.69947
▁variable	-8.70144
▁usuarios	-8.70216
▁log	-8.70717
▁Default	-8.7073
▁point	-8.70942
▁returns	-8.71019
h	-8.71078
▁Internet	-8.71106
▁applications	-8.71118
▁without	-8.71162
▁caso	-8.71566
on	-8.71657
▁espacio	-8.71694
▁columna	-8.71724
▁Choose	-8.72009
▁líneas	-8.72044
▁calendario	-8.72217
▁Número	-8.72625
▁units	-8.72638
▁abajo	-8.72692
▁área	-8.7274
▁Window	-8.72918
▁otros	-8.72944
▁copy	-8.72963
▁account	-8.72973
▁regular	-8.73049
▁\	-8.73195
▁Traductor	-8.73303
us	-8.7345
▁iniciar	-8.73462
▁tema	-8.73515
▁después	-8.73582
▁m	-8.73591
▁interfaz	-8.73703
▁inicio	-8.73861
▁tareas	-8.74041
▁utilizando	-8.74165
▁sure	-8.74268
▁database	-8.74476
▁sea	-8.74555
X	-8.74765
▁empty	-8.74926
▁elegir	-8.74954
▁Not	-8.75315
▁values	-8.75502
▁DVD	-8.7558
▁Alt	-8.75604
▁Crear	-8.75649
▁tool	-8.75964
▁share	-8.76131
▁over	-8.76326
▁Here	-8.76348
▁Import	-8.76454
▁Options	-8.7646
▁filtro	-8.76502
▁anterior	-8.76679
▁running	-8.76921
▁description	-8.76958
▁disco	-8.77347
▁uso	-8.77402
▁Enable	-8.77475
▁alarm	-8.77612
▁end	-8.77717
▁An	-8.77768
▁ventanas	-8.77883
▁derecho	-8.77893
▁final	-8.77996
▁connection	-8.78034
▁module	-8.78185
▁tecla	-8.78537
▁Nuevo	-8.78844
▁System	-8.79001
▁Search	-8.7904
▁Aquí	-8.79118
▁As	-8.79358
▁donde	-8.79413
▁mientras	-8.79686
▁activa	-8.79817
▁alarma	-8.79847
▁installed	-8.79907
▁Tamaño	-8.79962
▁Start	-8.80243
▁simple	-8.80252
▁Time	-8.80386
▁siguientes	-8.80548
▁calendar	-8.80561
R	-8.80597
▁ruta	-8.80726
▁location	-8.80735
label	-8.80998
▁word	-8.81038
▁space	-8.81067
▁lines	-8.81069
▁preferencias	-8.81231
▁primera	-8.81308
▁muy	-8.81386
▁Ha	-8.81456
▁area	-8.81613
▁enabled	-8.81889
re	-8.81924
▁tarea	-8.81997
▁Buscar	-8.82119
▁now	-8.82351
▁nombres	-8.82378
▁Files	-8.8254
▁video	-8.82599
▁clic	-8.8264
▁impresión	-8.82657
B	-8.82677
▁así	-8.82732
▁sido	-8.82861
▁proceso	-8.82871
▁player	-8.82952
▁V	-8.8298
▁standard	-8.83062
▁through	-8.83266
▁Go	-8.83323
▁User	-8.83811
▁través	-8.83817
▁would	-8.83817
▁Insert	-8.8385
▁playlist	-8.84087
weather	-8.84138
0	-8.84169
▁channel	-8.84221
▁arriba	-8.8441
▁entradas	-8.84468
▁Canno	-8.84724
▁position	-8.85018
▁completa	-8.85178
▁emails	-8.85488
▁10	-8.85584
▁copia	-8.85635
▁»,	-8.85719
▁appear	-8.85745
▁users	-8.85922
▁Borrar	-8.85956
▁root	-8.86096
▁language	-8.86316
▁whether	-8.8648
▁Qt	-8.86784
▁herramienta	-8.86893
6	-8.86971
▁Export	-8.87227
▁state	-8.87266
▁8	-8.87321
▁siempre	-8.87388
▁puntos	-8.87455
▁print	-8.87472
▁keyboard	-8.87685
▁very	-8.87947
▁introducir	-8.8795
▁See	-8.87964
▁case	-8.88028
▁keys	-8.88035
▁mapa	-8.8808
▁either	-8.88183
▁rápido	-8.88429
▁delete	-8.88501
▁menos	-8.88599
▁Configuration	-8.88603
▁botones	-8.88751
▁process	-8.88752
▁entries	-8.88757
▁cadena	-8.88942
▁session	-8.89102
color	-8.89527
▁canal	-8.89776
▁general	-8.89885
▁let	-8.90072
▁Filter	-8.90198
Stencil	-8.90255
▁Vista	-8.90309
▁iconos	-8.90588
▁plantilla	-8.90617
▁software	-8.90618
▁pulsar	-8.90865
▁Toolbar	-8.90931
quot	-8.9105
▁fue	-8.91125
▁pre	-8.91198
▁instead	-8.91253
▁interface	-8.91578
▁propiedades	-8.91597
▁again	-8.91713
amount	-8.91737
▁título	-8.91753
▁Lista	-8.91792
▁módulo	-8.91894
▁similar	-8.9195
▁Change	-8.92016
EMAIL	-8.92023
▁Linux	-8.92109
▁above	-8.92344
L	-8.9237
▁direcciones	-8.92499
▁Number	-8.92563
▁+	-8.92822
▁well	-8.93003
▁enviar	-8.93089
ic	-8.93149
▁visible	-8.93192
▁leer	-8.93199
TRANSLATORS	-8.93286
▁objetos	-8.93462
▁hace	-8.93541
▁Modo	-8.93681
P	-8.93826
▁Auto	-8.9394
▁because	-8.93953
an	-8.94284
▁inferior	-8.94347
▁Server	-8.94445
▁Data	-8.94465
▁cargar	-8.94586
▁otras	-8.95207
▁ayuda	-8.95312
▁Message	-8.9533
www	-8.95404
▁documentación	-8.9542
▁Barra	-8.95583
▁tag	-8.95697
▁Z	-8.95707
▁Display	-8.95821
▁import	-8.95881
F	-8.95906
▁Copy	-8.95907
▁electrónico	-8.96164
▁rápidos	-8.96248
▁pista	-8.96297
▁durante	-8.96393
▁pulsando	-8.96416
▁H	-8.96507
▁we	-8.96519
▁%1:	-8.96528
▁By	-8.96575
▁Tools	-8.96688
▁created	-8.9675
▁certificado	-8.968
▁partida	-8.96815
):	-8.96877
▁kate	-8.96905
appname	-8.97042
▁commands	-8.97119
8	-8.97254
▁background	-8.97258
▁primer	-8.97367
▁ningún	-8.97395
▁Print	-8.97577
▁mayor	-8.97887
▁6	-8.98054
▁play	-8.98109
▁theme	-8.98109
▁varias	-8.98114
T	-8.98151
▁ejecutar	-8.98182
▁go	-8.98254
▁Q	-8.98262
▁Folder	-8.98331
▁Nueva	-8.98578
▁own	-8.9868
▁character	-8.98731
▁Windows	-8.98812
▁computer	-8.98849
▁Right	-8.98946
os	-8.98991
▁pueda	-8.99075
▁Next	-8.99281
▁páginas	-8.99366
▁algunos	-8.99914
▁tanto	-9.00126
▁template	-9.00449
▁folders	-9.00644
▁write	-9.00689
▁etiquetas	-9.008
MB	-9.00983
▁Con	-9.01183
▁useful	-9.01191
▁try	-9.01333
mos	-9.01336
▁Herramientas	-9.01419
▁Close	-9.01502
▁Cisco	-9.01657
▁characters	-9.01689
▁send	-9.01689
▁Page	-9.0176
▁Control	-9.01766
is	-9.01775
▁might	-9.02183
▁máquina	-9.0233
▁Canada	-9.02548
▁especificar	-9.02666
▁off	-9.02833
▁perfil	-9.02987
▁valid	-9.03029
▁per	-9.03042
▁bajo	-9.03083
▁teclas	-9.03215
▁Y	-9.03501
E	-9.03555
w	-9.03617
▁varios	-9.0366
Desea	-9.03702
▁estilo	-9.03757
▁Abre	-9.03784
▁track	-9.03896
▁escribir	-9.04062
▁proporciona	-9.04077
▁Mover	-9.04134
▁c	-9.04341
▁...	-9.04394
▁porque	-9.04419
▁int	-9.04598
▁válido	-9.04656
▁Mode	-9.04874
▁profile	-9.04884
▁estos	-9.05185
▁Copyright	-9.05208
▁id	-9.05534
▁dentro	-9.05539
▁map	-9.0555
▁cómo	-9.0584
▁portapapeles	-9.05931
▁terminal	-9.06034
▁On	-9.06157
▁remote	-9.06288
▁bottom	-9.06323
▁estar	-9.0666
▁ejecución	-9.06849
ma	-9.06954
▁impresora	-9.07052
menu	-9.07058
▁month	-9.07223
th	-9.07272
Constellation	-9.07399
▁whatsthis	-9.07977
▁second	-9.0804
▁cell	-9.08184
▁buttons	-9.08325
▁tabla	-9.0844
▁matching	-9.08695
án	-9.08745
%	-9.08826
▁ninguna	-9.08906
▁hoja	-9.08923
▁feature	-9.08939
▁several	-9.09077
▁Tab	-9.09092
▁content	-9.09311
▁Project	-9.09335
▁define	-9.09348
dos	-9.09368
▁How	-9.09649
▁saved	-9.09704
▁full	-9.09811
▁disk	-9.09938
▁medio	-9.10082
▁even	-9.10091
N	-9.10253
▁selecciona	-9.10423
▁palabra	-9.10465
▁algunas	-9.10544
▁match	-9.10686
O	-9.10953
▁please	-9.10978
▁Desktop	-9.11076
▁multiple	-9.11161
▁editar	-9.11216
▁every	-9.11353
▁always	-9.11353
▁Left	-9.114
▁celda	-9.11418
▁look	-9.11459
▁load	-9.11506
▁korganizer	-9.11569
▁Size	-9.1164
▁back	-9.11781
▁mover	-9.11947
▁noticias	-9.11973
▁context	-9.12067
▁accesos	-9.12106
and	-9.12125
▁autor	-9.12131
▁article	-9.1241
▁igual	-9.12439
▁properties	-9.12513
▁7	-9.12601
▁han	-9.12601
▁event	-9.12637
z	-9.12723
▁MIME	-9.12726
▁global	-9.12804
▁Network	-9.12927
▁Help	-9.1293
▁Juego	-9.12987
▁entorno	-9.13215
▁real	-9.13421
▁package	-9.13469
▁amarok	-9.13547
▁playing	-9.1369
K	-9.13772
▁blanco	-9.13779
▁Failed	-9.13905
▁means	-9.14077
▁izquierdo	-9.14087
▁gráfico	-9.14195
▁significa	-9.14206
▁Date	-9.14233
▁uses	-9.14342
▁{	-9.14366
▁supported	-9.14426
▁special	-9.14434
▁element	-9.14443
▁detalles	-9.14647
▁Properties	-9.14684
▁Copiar	-9.14755
▁operation	-9.1476
▁jugador	-9.14803
▁(%1)	-9.14849
▁continuación	-9.14874
▁Toggle	-9.14889
▁navegador	-9.14988
▁paquete	-9.14996
▁Konqueror	-9.15078
▁title	-9.15172
▁multimedia	-9.15283
▁enlace	-9.15394
▁lists	-9.15472
▁Current	-9.15508
▁momento	-9.15805
▁sonido	-9.15815
▁acceder	-9.16138
▁tres	-9.16282
▁equipo	-9.164
▁última	-9.16411
▁able	-9.16682
▁contain	-9.16716
▁form	-9.16788
▁contents	-9.16839
▁máximo	-9.16883
▁Información	-9.16887
▁changed	-9.16911
▁idioma	-9.17014
▁drop	-9.17048
▁From	-9.17118
▁Insertar	-9.17382
world	-9.17451
▁certificate	-9.17643
▁edición	-9.17906
▁seleccionados	-9.17938
▁evento	-9.17966
▁ese	-9.18162
▁table	-9.18218
▁windows	-9.1823
NAME	-9.18264
▁destino	-9.18527
▁details	-9.18527
▁sub	-9.18594
▁expression	-9.18691
▁specific	-9.18824
▁motor	-9.18867
ado	-9.19034
▁memoria	-9.19142
▁Using	-9.19143
▁complemento	-9.19304
▁These	-9.19327
▁kdm	-9.19411
▁claves	-9.1954
▁single	-9.19558
▁operación	-9.19559
▁desee	-9.19617
▁diferente	-9.19722
▁colors	-9.1994
▁misma	-9.20109
▁bits	-9.20159
▁soporte	-9.20202
7	-9.20223
▁tendrá	-9.2023
▁Formato	-9.20256
▁eventos	-9.20265
▁Group	-9.20277
GenericName	-9.2036
▁clipboard	-9.20396
▁correctamente	-9.20407
▁defined	-9.20422
▁Hide	-9.20653
▁%2.	-9.20799
▁tenga	-9.20908
▁palabras	-9.20969
▁printer	-9.21093
▁existing	-9.21169
▁borrar	-9.21197
▁Ocultar	-9.21307
▁personal	-9.2147
▁grupos	-9.21576
▁within	-9.21743
▁total	-9.21815
▁Exportar	-9.21922
ra	-9.21941
▁Su	-9.21994
▁administrador	-9.22013
build	-9.22271
▁both	-9.2228
▁veces	-9.22307
▁knode	-9.2231
▁acciones	-9.22364
▁required	-9.22369
▁árbol	-9.22437
▁marca	-9.22445
▁Importar	-9.22565
▁kppp	-9.22747
▁f	-9.22777
▁proxy	-9.22979
▁realizar	-9.23131
▁With	-9.23185
▁completo	-9.23597
▁Propiedades	-9.23609
▁media	-9.23619
▁ISO	-9.23647
▁barras	-9.23798
▁último	-9.23818
▁IMAP	-9.23826
▁download	-9.23827
▁style	-9.24199
▁funciones	-9.24319
▁buscar	-9.24353
▁artículos	-9.24402
▁KMail	-9.24493
▁Only	-9.24547
▁modificar	-9.2466
▁Manual	-9.24677
▁types	-9.24748
▁Tenga	-9.2493
▁utilice	-9.24988
▁previous	-9.25116
▁exists	-9.2512
▁made	-9.25129
▁dispositivos	-9.25185
▁encuentra	-9.25202
▁Format	-9.2529
▁tienen	-9.2529
▁translation	-9.25381
▁tooltip	-9.25426
▁Command	-9.25429
▁colección	-9.25797
▁Enviar	-9.25805
▁done	-9.25836
eg	-9.25934
▁Information	-9.26034
▁Cerrar	-9.26039
▁vacío	-9.26042
▁nuevos	-9.26223
▁kdesvn	-9.26259
▁elija	-9.26328
▁seguridad	-9.26465
OF	-9.26543
▁called	-9.26555
▁objects	-9.26665
▁three	-9.26913
▁encontrado	-9.26952
▁marcadores	-9.26954
▁muestran	-9.27108
▁enable	-9.2727
▁Tiempo	-9.27369
▁introduzca	-9.27371
▁being	-9.27496
▁alarmas	-9.27567
▁Ayuda	-9.27598
▁html	-9.27668
▁selecting	-9.27684
▁ahora	-9.27687
▁describe	-9.277
▁Send	-9.27887
▁variables	-9.28167
▁report	-9.28244
▁contact	-9.28257
▁added	-9.28264
▁gráfica	-9.28319
▁preview	-9.28377
▁establecer	-9.28406
▁Le	-9.28414
me	-9.28482
▁manager	-9.28582
▁range	-9.28591
▁vertical	-9.28627
▁What	-9.28767
▁Unknown	-9.28781
▁Line	-9.28787
M	-9.28926
▁test	-9.28955
▁extensión	-9.2896
W	-9.29094
▁non	-9.29178
▁still	-9.29184
▁cifrado	-9.29244
▁recurso	-9.29253
▁probably	-9.29426
ia	-9.29453
▁based	-9.29734
▁widgets	-9.29748
▁sent	-9.29847
▁particular	-9.29874
▁home	-9.29963
▁result	-9.30072
▁sound	-9.30116
▁pages	-9.3017
▁started	-9.30173
▁host	-9.30281
▁Font	-9.30569
▁Fernández	-9.3057
▁parámetros	-9.30629
▁artículo	-9.30649
▁Texto	-9.30656
▁auto	-9.30714
na	-9.30715
▁UNIX	-9.30829
▁encoding	-9.30839
ciones	-9.31031
▁estas	-9.3126
▁quanta	-9.31283
▁día	-9.31315
▁resource	-9.31854
▁icons	-9.31924
FDL	-9.31982
▁HTTP	-9.31983
▁task	-9.32058
▁partition	-9.32069
▁actualmente	-9.32128
▁gt	-9.32361
▁side	-9.32388
▁small	-9.32433
▁expresión	-9.3245
▁indica	-9.32475
ie	-9.32839
▁features	-9.32881
▁PostScript	-9.32977
▁via	-9.33124
▁Ir	-9.33168
▁ubicación	-9.33172
▁Manager	-9.3324
▁Activar	-9.33251
▁login	-9.33253
▁válida	-9.33271
▁speed	-9.33287
▁know	-9.33363
▁plain	-9.33468
the	-9.33507
▁Normal	-9.33594
▁port	-9.33704
▁espacios	-9.33745
▁pendientes	-9.33855
▁Advanced	-9.33961
*	-9.34001
▁necesario	-9.34013
▁correct	-9.34236
OLES	-9.34367
te	-9.34591
▁Play	-9.34759
▁_	-9.34804
▁instalación	-9.34854
▁collection	-9.35029
▁Complemento	-9.35227
3;	-9.35282
▁d	-9.35409
▁keep	-9.35673
▁asistente	-9.35719
Q	-9.35725
▁method	-9.35732
▁resultado	-9.35739
V	-9.35743
▁deben	-9.35972
▁correspondiente	-9.36075
▁bien	-9.36101
00	-9.36252
▁row	-9.36317
▁actions	-9.36321
▁CVS	-9.36331
id	-9.36457
▁Document	-9.36585
▁primero	-9.36863
▁working	-9.36904
▁complete	-9.36944
▁translate	-9.36959
tion	-9.37102
▁lectura	-9.37312
▁omisión	-9.37312
▁those	-9.37312
▁configured	-9.37354
I	-9.37427
▁automática	-9.37454
▁columnas	-9.37465
rá	-9.37501
▁haga	-9.37508
▁va	-9.37544
▁definir	-9.37562
▁errores	-9.37563
▁free	-9.37645
▁útil	-9.37756
▁Aceptar	-9.37816
▁Description	-9.38049
▁were	-9.38084
▁condition	-9.38122
▁disabled	-9.38164
▁volumen	-9.38193
space	-9.38217
▁displays	-9.383
▁activar	-9.38346
GPL	-9.38385
▁width	-9.38418
▁index	-9.38514
▁9	-9.3852
▁Video	-9.38586
▁Player	-9.38812
▁Some	-9.38818
▁least	-9.3882
▁stored	-9.38919
▁Audio	-9.3923
▁oculta	-9.3928
▁b	-9.39331
▁Location	-9.3934
▁i	-9.39511
▁inlistbox	-9.39593
▁points	-9.39703
▁Local	-9.39778
▁filtros	-9.3984
▁Elija	-9.39853
▁really	-9.39876
G	-9.39884
▁Key	-9.3994
▁reglas	-9.40135
▁Quit	-9.40201
▁Clear	-9.40357
▁nickname	-9.40359
▁programas	-9.40398
▁Selection	-9.40413
▁filename	-9.40514
▁servicio	-9.40543
▁true	-9.40548
▁Main	-9.40808
▁Last	-9.40837
▁simply	-9.40883
▁book	-9.40948
▁job	-9.41081
▁li	-9.41153
▁Como	-9.41158
plus	-9.41244
▁segundo	-9.41273
▁custom	-9.41389
unit	-9.41419
▁environment	-9.41623
▁kstars	-9.41638
▁close	-9.41645
▁around	-9.41699
9	-9.41853
▁export	-9.41866
▁label	-9.41908
ion	-9.41942
▁events	-9.42058
▁fila	-9.4212
▁Utilizar	-9.42127
▁step	-9.42149
▁guión	-9.4216
▁kalarm	-9.42423
▁distribución	-9.4243
▁drag	-9.42434
▁diff	-9.42443
▁Run	-9.42482
▁library	-9.42684
▁Fecha	-9.42914
▁provides	-9.43007
▁Find	-9.43077
las	-9.43173
▁sitio	-9.43178
▁copyright	-9.43227
st	-9.4331
▁include	-9.43373
▁previa	-9.4346
▁amount	-9.43629
▁header	-9.4372
ro	-9.4375
▁browser	-9.43785
▁OK	-9.43818
▁Dialog	-9.43886
▁Ventana	-9.4398
▁bandeja	-9.4402
▁articles	-9.44169
▁firma	-9.44251
▁effect	-9.4426
▁koffice	-9.44288
▁bug	-9.44289
ir	-9.44364
ecast	-9.44392
▁entered	-9.44506
▁Utilice	-9.44541
▁seguro	-9.44549
▁mejor	-9.44873
▁until	-9.44957
▁importar	-9.45041
▁paso	-9.45085
▁tree	-9.45101
▁desconocido	-9.45101
▁shell	-9.45136
▁Archivos	-9.45147
▁descripción	-9.45183
▁desplegable	-9.45333
▁Descripción	-9.45348
▁hide	-9.45409
▁build	-9.45555
▁libre	-9.45605
▁category	-9.45627
▁opened	-9.45686
▁aparecerá	-9.45765
▁place	-9.45793
▁documentos	-9.46035
name	-9.46046
ting	-9.46152
▁efecto	-9.46159
▁Log	-9.46172
▁put	-9.46225
▁r	-9.46226
▁propiedad	-9.46349
▁mplayer	-9.46435
▁shortcut	-9.46467
▁loaded	-9.4653
option	-9.46563
▁Handbook	-9.46706
▁él	-9.46708
▁Nepomuk	-9.4671
▁respuesta	-9.46711
▁partir	-9.46723
▁bytes	-9.46807
▁Address	-9.46937
▁embargo	-9.4698
▁cambio	-9.46994
▁instalado	-9.47006
▁service	-9.47016
▁Up	-9.4706
est	-9.47072
▁canales	-9.47155
▁Marque	-9.47236
▁kopete	-9.47275
▁pistas	-9.47416
\\	-9.47473
▁segundos	-9.4749
▁short	-9.47523
▁conjunto	-9.47549
▁kontact	-9.47556
▁long	-9.47576
un	-9.47647
▁exist	-9.47732
▁Opens	-9.47752
▁sencillo	-9.47818
▁my	-9.47967
▁operaciones	-9.48084
▁Java	-9.48138
▁kspread	-9.48375
real	-9.48426
▁GUI	-9.48495
▁day	-9.48601
▁continue	-9.48666
▁individual	-9.48786
▁update	-9.48817
▁attribute	-9.48992
▁algo	-9.49024
los	-9.49039
▁t	-9.491
▁tell	-9.49199
▁connect	-9.49451
▁note	-9.49515
▁Device	-9.49568
emos	-9.49587
▁rules	-9.49599
▁recursos	-9.49689
▁Plugin	-9.49765
▁store	-9.4993
▁%4	-9.50069
▁biblioteca	-9.50098
▁appears	-9.50134
▁horizontal	-9.50226
▁Cancel	-9.50256
▁Web	-9.50312
▁link	-9.50455
▁Invalid	-9.50497
um	-9.50537
▁codificación	-9.50621
▁plano	-9.50642
▁volver	-9.50665
▁método	-9.50667
usually	-9.50667
▁RMB	-9.50673
▁12	-9.50694
▁'.	-9.50843
The	-9.50844
▁mi	-9.50872
que	-9.50918
▁signature	-9.50963
▁U	-9.50991
[	-9.5108
up	-9.51221
▁Fallo	-9.51257
▁aspecto	-9.51279
file	-9.5129
▁h	-9.5134
▁once	-9.51394
▁servidores	-9.51513
▁directamente	-9.5176
▁ellos	-9.51805
▁seleccionando	-9.51819
▁additional	-9.51846
▁Lo	-9.51853
▁especificado	-9.51902
▁contacto	-9.51945
▁sistemas	-9.52046
▁directly	-9.5205
▁config	-9.52083
▁QString	-9.52206
▁volume	-9.52217
if	-9.52248
▁client	-9.52341
▁permisos	-9.52409
▁unit	-9.52425
▁tras	-9.52442
▁compile	-9.52445
▁utilizará	-9.52503
▁funciona	-9.52524
▁depend	-9.5253
▁much	-9.52658
▁directorios	-9.52714
▁activo	-9.52724
é	-9.52767
▁digiKam	-9.52914
▁Todos	-9.52922
▁especiales	-9.52989
▁cambia	-9.53024
▁Iniciar	-9.53032
▁paquetes	-9.53049
▁extra	-9.53067
▁problemas	-9.5307
ba	-9.53187
▁Filtro	-9.53283
▁insert	-9.5337
▁partición	-9.53499
▁Comment	-9.53567
▁functions	-9.53632
▁historial	-9.53795
▁layout	-9.53893
10	-9.53978
▁velocidad	-9.54
▁números	-9.54029
▁contactos	-9.54037
▁programs	-9.54082
▁Each	-9.5409
▁libreta	-9.54097
▁reproducir	-9.54161
▁MB	-9.54177
il	-9.54239
▁Ya	-9.5431
for	-9.54357
▁Dirección	-9.5438
▁memory	-9.54402
▁hidden	-9.5441
▁quiera	-9.54423
▁Script	-9.54683
▁eg	-9.54688
▁limit	-9.54778
▁cliente	-9.54916
rán	-9.54925
▁high	-9.54937
▁property	-9.54973
▁movimiento	-9.55073
▁límite	-9.55089
▁square	-9.5511
▁too	-9.55199
▁give	-9.55246
="	-9.55306
▁Estado	-9.5534
▁Ejecutar	-9.55341
▁Sólo	-9.55579
▁Password	-9.55586
▁class	-9.55793
%1	-9.56027
▁20	-9.56105
wrap	-9.56112
▁usado	-9.56387
▁continuar	-9.56459
▁Salir	-9.56482
▁scripts	-9.5652
ve	-9.56545
▁radio	-9.56564
▁seconds	-9.56575
▁días	-9.56768
▁Screen	-9.56948
▁block	-9.56999
▁devices	-9.57106
▁Establecer	-9.572
▁numbers	-9.57256
▁intervalo	-9.57284
▁Ahora	-9.57395
▁nuevas	-9.57594
▁containing	-9.57644
▁Watts	-9.57684
▁Zoom	-9.57719
í	-9.58001
line	-9.58006
▁usr	-9.58049
▁clase	-9.58166
▁enlaces	-9.58432
co	-9.58473
▁words	-9.58534
▁Switch	-9.58539
▁instalar	-9.58549
▁virtual	-9.58554
▁So	-9.58617
▁apply	-9.58623
▁starting	-9.5863
▁Lauri	-9.58632
si	-9.58697
▁esquema	-9.58747
▁gráficos	-9.58761
▁16	-9.58769
▁days	-9.58887
▁Now	-9.58891
▁manualmente	-9.59273
▁Debe	-9.59275
▁pulsa	-9.59388
por	-9.5946
▁gestor	-9.59539
▁Background	-9.59546
▁campos	-9.59552
▁puerto	-9.59562
▁Autor	-9.59567
▁turn	-9.59699
▁existente	-9.59704
white	-9.59814
▁manually	-9.59929
▁Status	-9.59932
▁tal	-9.59947
▁Level	-9.60032
▁problema	-9.60113
▁maximum	-9.60162
▁First	-9.60193
ha	-9.60289
▁protocolo	-9.60431
▁wish	-9.60471
▁borde	-9.60481
▁After	-9.60482
▁Update	-9.60534
▁yet	-9.60578
of	-9.60663
▁Source	-9.60664
▁Other	-9.60682
integer	-9.60759
▁often	-9.6078
▁Active	-9.60798
▁kcontrol	-9.60811
▁Tool	-9.60935
▁popup	-9.61119
Y	-9.61123
▁protocol	-9.61191
▁Program	-9.61314
▁Orden	-9.61414
▁incluso	-9.61447
▁DTD	-9.61466
▁elements	-9.61572
▁konsole	-9.61791
▁ni	-9.61832
▁operations	-9.61886
▁Draw	-9.61906
▁captura	-9.62019
▁desactivar	-9.62092
▁marcada	-9.62095
ca	-9.62211
▁At	-9.62347
▁Akonadi	-9.62372
▁Custom	-9.62386
▁SSL	-9.62455
▁Solo	-9.62469
▁vacía	-9.62563
▁características	-9.62612
▁Panel	-9.62628
▁info	-9.62673
▁easy	-9.62692
▁Press	-9.62721
▁Cancelar	-9.62737
▁Title	-9.62757
▁especial	-9.6288
▁hará	-9.62965
▁aparece	-9.6313
ll	-9.63301
▁present	-9.63405
▁Paste	-9.63421
▁vario	-9.63474
nt	-9.63474
▁Mensaje	-9.63541
▁marcado	-9.6364
▁during	-9.63661
▁later	-9.63663
▁descargar	-9.63672
Marie	-9.63884
▁Bar	-9.6389
▁author	-9.63977
▁Santiago	-9.63985
▁certain	-9.63985
▁Output	-9.64014
▁comenzar	-9.64233
▁simplemente	-9.64353
▁coordenadas	-9.64384
▁systems	-9.64455
▁known	-9.64567
▁doble	-9.64582
▁puntuación	-9.64638
▁Preview	-9.64664
▁parameter	-9.64685
▁categoría	-9.64867
▁contextual	-9.64883
ouces	-9.64965
▁Documentation	-9.64973
▁visor	-9.64987
▁he	-9.65051
▁length	-9.65085
▁modify	-9.65133
▁fonts	-9.65154
▁indicar	-9.65196
▁menús	-9.65296
io	-9.65306
▁white	-9.65317
▁Hay	-9.65406
▁celdas	-9.65513
▁pequeño	-9.65524
▁times	-9.65537
▁configurado	-9.65548
at	-9.65569
▁calidad	-9.65625
▁adicionales	-9.65682
▁corresponding	-9.65695
▁removed	-9.65953
▁chosen	-9.65977
▁algún	-9.6598
▁startup	-9.65999
▁PDF	-9.66
ation	-9.66027
▁Anne	-9.66102
▁latex	-9.66209
▁plantillas	-9.66277
▁Imprimir	-9.66288
▁escritura	-9.66346
▁Down	-9.66382
▁Make	-9.66452
▁pixels	-9.66468
▁Are	-9.66508
▁backend	-9.66554
▁MIDI	-9.66621
▁JavaScript	-9.66622
▁Previous	-9.66629
▁external	-9.66632
▁inicial	-9.66661
▁parameters	-9.66733
▁torrent	-9.66869
▁Mail	-9.66923
Description	-9.66972
▁mediante	-9.66973
▁inside	-9.67201
▁mark	-9.67276
▁García	-9.67291
▁centro	-9.67291
▁double	-9.67312
▁Load	-9.67325
lt	-9.67359
▁Red	-9.67384
▁(%2)	-9.6745
▁copiar	-9.67539
▁negro	-9.6754
▁me	-9.67617
▁Diálogo	-9.67628
▁kpresenter	-9.67638
▁activado	-9.67652
▁provide	-9.67658
▁transaction	-9.67679
▁query	-9.67785
▁Connection	-9.67907
▁autenticación	-9.67965
▁Media	-9.68048
▁needs	-9.68215
▁100	-9.6822
▁envío	-9.68228
▁few	-9.68307
▁gold	-9.68352
▁j	-9.68455
▁álbum	-9.6856
▁screenshot	-9.68568
▁muchas	-9.68586
ía	-9.68597
▁Matthias	-9.68645
▁listas	-9.68648
▁Application	-9.68655
▁carácter	-9.68659
▁leave	-9.68771
▁cantidad	-9.68901
▁Carpeta	-9.68928
▁Cursor	-9.68986
▁imprimir	-9.69049
▁parámetro	-9.69267
▁especifica	-9.69291
▁cerrar	-9.69298
▁Amarok	-9.69328
▁needed	-9.69346
▁Después	-9.69672
▁niveles	-9.69674
▁editing	-9.69797
▁central	-9.69851
▁pestañas	-9.69906
▁ajustar	-9.69906
▁remoto	-9.6998
▁monitor	-9.69989
▁Mahfouf	-9.70019
▁kile	-9.70026
▁fallo	-9.70165
▁encryption	-9.70366
▁writing	-9.70378
▁tags	-9.70613
▁Port	-9.70684
▁shortcuts	-9.70707
▁comportamiento	-9.7071
ne	-9.70767
▁ask	-9.70833
U	-9.70963
▁disable	-9.70963
▁salir	-9.71058
▁Siguiente	-9.71067
ble	-9.71075
▁Top	-9.71105
ta	-9.71201
▁cabecera	-9.71378
▁prueba	-9.71388
▁santi	-9.71408
▁pattern	-9.7141
▁itself	-9.71416
▁Stop	-9.71441
▁since	-9.71459
▁nada	-9.71495
▁co	-9.71549
▁Define	-9.71569
▁certificados	-9.71601
▁deleted	-9.71671
▁score	-9.71725
▁written	-9.71759
▁importación	-9.71774
▁oro	-9.71792
▁switch	-9.71804
Qué	-9.71805
▁printing	-9.71858
#	-9.71902
▁archive	-9.71996
▁llamada	-9.7211
▁Pablo	-9.72111
▁Introducción	-9.72113
▁decir	-9.72114
▁activada	-9.72118
▁makes	-9.72178
▁Vea	-9.72391
▁automático	-9.72441
▁instance	-9.72443
▁Ruta	-9.72444
▁moves	-9.72467
▁OpenPGP	-9.72494
▁target	-9.72503
▁provided	-9.72584
▁End	-9.72585
▁light	-9.72636
▁atributo	-9.72817
▁luego	-9.72819
▁origen	-9.72821
▁installation	-9.72846
▁slider	-9.72865
▁formas	-9.73131
▁Apply	-9.7318
▁Mark	-9.73185
▁history	-9.73188
▁LaTeX	-9.73244
▁call	-9.73277
▁carga	-9.73324
▁muchos	-9.73348
▁listed	-9.73408
▁Author	-9.73512
▁David	-9.73532
▁Introduction	-9.73543
▁Contraseña	-9.7355
▁atributos	-9.73605
▁estará	-9.73609
▁Nota	-9.73644
▁invalid	-9.73743
▁Servidor	-9.73822
▁mantener	-9.73857
▁Remote	-9.73918
▁groups	-9.73931
▁Action	-9.73973
▁seleccionadas	-9.74013
▁center	-9.74058
▁Valor	-9.74198
▁fuentes	-9.74216
11	-9.74221
H	-9.74271
▁common	-9.74322
▁Selecciona	-9.74326
▁old	-9.74332
▁false	-9.74446
▁caché	-9.74612
▁kdiff	-9.74638
▁Samba	-9.74644
▁frame	-9.74779
ri	-9.74873
▁controlar	-9.7488
it	-9.74942
ando	-9.74943
▁card	-9.7495
▁stop	-9.74977
▁l	-9.74981
▁CPU	-9.75011
▁ASCII	-9.75035
▁descarga	-9.75143
▁demás	-9.75224
▁extension	-9.7528
▁ppp	-9.75492
▁podido	-9.75703
▁tray	-9.75712
▁synonyms	-9.7574
▁quality	-9.75743
▁aunque	-9.75768
▁determine	-9.75769
▁Shortcuts	-9.75826
▁jugadores	-9.75855
▁fuera	-9.75909
ce	-9.75911
▁referencia	-9.75964
▁cual	-9.75996
▁However	-9.76073
▁LDAP	-9.76079
▁mes	-9.76091
▁agenda	-9.76166
▁cache	-9.76325
▁papel	-9.7635
▁Michael	-9.76445
▁propio	-9.76451
▁cámara	-9.76453
▁good	-9.76459
▁problem	-9.76674
▁lado	-9.76835
▁definido	-9.76856
▁temas	-9.76954
▁learn	-9.77003
▁debajo	-9.77009
▁people	-9.77175
▁Account	-9.77235
▁esa	-9.7725
▁unknown	-9.77294
▁tools	-9.77411
▁temporal	-9.77445
▁alarms	-9.77522
▁Reproducir	-9.77547
▁successfully	-9.77561
▁DCOP	-9.77566
▁estructura	-9.77586
▁rápida	-9.77586
▁Total	-9.77589
▁según	-9.77645
▁hand	-9.77751
▁comprobar	-9.77752
▁expresiones	-9.7792
▁symbol	-9.77987
▁Sub	-9.78007
oy	-9.78034
das	-9.78148
ng	-9.78304
▁Rename	-9.7832
▁Falló	-9.78335
▁Icon	-9.78369
▁Template	-9.78371
text	-9.78373
mail	-9.78465
▁utilizado	-9.78467
ación	-9.78566
▁who	-9.78577
▁mayúsculas	-9.78606
▁hecho	-9.7871
▁choice	-9.78731
▁Database	-9.78806
▁locales	-9.78808
▁lib	-9.78819
▁Theme	-9.78956
▁course	-9.79048
▁guiones	-9.79048
▁moving	-9.79049
▁KMyMoney	-9.79057
▁hardware	-9.79077
▁finished	-9.791
▁pendiente	-9.79108
▁distribution	-9.7911
▁usará	-9.79112
province	-9.79138
2;	-9.7916
▁podría	-9.79275
▁fechas	-9.79393
▁tabs	-9.79415
▁something	-9.79429
▁informe	-9.79431
▁incluye	-9.79616
▁gives	-9.79692
▁One	-9.79774
▁Can	-9.79802
▁licencia	-9.79856
▁emergente	-9.79858
▁Link	-9.79923
▁Track	-9.80012
▁Playlist	-9.80295
▁hacerlo	-9.80395
▁permitirá	-9.80438
▁Download	-9.80447
▁dev	-9.80483
▁columns	-9.80535
select	-9.80535
▁apps	-9.8056
▁encontró	-9.80572
▁Python	-9.80578
▁Once	-9.80584
▁Aplicar	-9.80596
▁haciendo	-9.80606
▁modified	-9.80612
▁vocabulario	-9.8063
▁documents	-9.80631
▁request	-9.80639
▁correcta	-9.80827
▁Info	-9.80875
▁Uso	-9.80963
▁Actualizar	-9.80983
▁Activa	-9.80986
▁rate	-9.81225
▁year	-9.81281
▁fields	-9.81317
▁Selección	-9.81342
▁poder	-9.81355
amp	-9.81392
▁repositorio	-9.81408
▁ajuste	-9.81413
++	-9.81414
▁progress	-9.8152
▁named	-9.81528
▁usage	-9.8174
man	-9.81768
▁")	-9.81771
▁ocultar	-9.81774
am	-9.81818
▁TV	-9.81822
▁guardado	-9.8184
▁Calendar	-9.81854
▁More	-9.81858
▁Undo	-9.82008
j	-9.82048
▁Keep	-9.82145
▁índice	-9.82193
▁Read	-9.82234
▁sky	-9.82249
▁starts	-9.82268
▁associated	-9.82415
▁Vertical	-9.8249
▁navegación	-9.82511
▁due	-9.82583
▁trabajos	-9.82586
▁blue	-9.82661
▁links	-9.8284
▁Toolbars	-9.82881
▁Horizontal	-9.82883
▁cause	-9.82891
hether	-9.82899
▁principio	-9.82902
▁presentación	-9.82914
▁Sistema	-9.82922
▁License	-9.82927
▁alguna	-9.82993
nbsp	-9.83036
▁played	-9.83062
▁v	-9.83097
▁necesitará	-9.83226
▁vistas	-9.83239
▁black	-9.83265
▁appropriate	-9.83286
▁consulta	-9.83286
▁Además	-9.83296
▁fallado	-9.83313
▁Install	-9.83396
▁desactiva	-9.83406
be	-9.83423
▁important	-9.83495
center	-9.83525
▁wizard	-9.83691
▁característica	-9.83791
sh	-9.83797
▁choosing	-9.84088
▁lower	-9.84152
▁We	-9.84188
▁caja	-9.84189
ton	-9.84197
▁mostrarán	-9.84282
▁None	-9.84356
▁wait	-9.8437
▁permiten	-9.84413
▁Replace	-9.84416
▁plugins	-9.8445
▁Original	-9.84494
▁patrón	-9.84501
▁tablero	-9.84502
▁mayoría	-9.84502
▁Compruebe	-9.84505
rc	-9.84506
▁Email	-9.84543
▁kdeprint	-9.84545
▁Allow	-9.84546
▁extensiones	-9.84578
et	-9.84662
▁resultados	-9.84671
▁soporta	-9.84724
▁Printer	-9.8475
▁CR	-9.84803
▁versiones	-9.84819
▁saving	-9.84887
▁Sancho	-9.84889
J	-9.84956
▁including	-9.8498
▁Profile	-9.85001
▁sign	-9.85025
▁Imagen	-9.85049
▁filters	-9.85077
▁ir	-9.85083
▁Cambia	-9.85358
▁results	-9.8557
▁replace	-9.85622
▁Acceso	-9.85691
▁FTP	-9.85702
▁whole	-9.85715
▁English	-9.85722
▁ejecutando	-9.85733
▁tracks	-9.85733
▁resumen	-9.85749
▁allowed	-9.85775
▁permissions	-9.85842
bit	-9.85843
▁works	-9.85934
▁album	-9.85952
▁abre	-9.86094
▁inicia	-9.86096
▁GnuPG	-9.86096
▁easily	-9.86096
▁Permitir	-9.86097
▁konversation	-9.86132
▁Base	-9.86198
▁letras	-9.86201
▁camera	-9.86232
▁mm	-9.86281
▁packages	-9.86325
▁identidad	-9.86419
▁Nivel	-9.8643
▁follow	-9.8646
▁bit	-9.86509
▁cero	-9.8651
▁Full	-9.8656
▁Point	-9.86595
help	-9.86664
▁dado	-9.8678
▁problems	-9.86891
▁Maximum	-9.86917
▁(*.	-9.8695
type	-9.8703
▁abierto	-9.87048
12	-9.87119
▁spaces	-9.87194
▁song	-9.87237
▁focus	-9.87282
▁Título	-9.87321
▁entonces	-9.87321
▁desarrollo	-9.87327
▁creating	-9.87327
star	-9.87333
▁Mike	-9.8734
▁Puerto	-9.87344
▁connected	-9.87421
▁llamado	-9.8743
▁único	-9.87452
▁Path	-9.87587
▁todavía	-9.8777
▁correctly	-9.87784
▁Herramienta	-9.87881
▁fill	-9.8789
▁players	-9.8796
cuadra	-9.88082
▁múltiples	-9.88108
not	-9.88147
▁grid	-9.88153
mp	-9.88173
▁Then	-9.88235
▁setup	-9.88276
▁large	-9.88447
▁kmplot	-9.8856
▁grabación	-9.88564
▁Try	-9.88596
▁directories	-9.88606
nstallation	-9.8864
▁pppd	-9.88691
▁enemigos	-9.88707
▁tan	-9.88879
▁LexUriServ	-9.88977
▁Vicente	-9.88977
▁sesiones	-9.88978
▁contexto	-9.88994
▁pasar	-9.89065
▁Menú	-9.89143
▁Certificate	-9.89227
only	-9.89341
▁Velocidad	-9.89395
▁void	-9.89396
▁Haga	-9.89425
▁supports	-9.89456
▁sí	-9.89515
▁cards	-9.89567
▁creado	-9.89647
▁filtrado	-9.89819
▁site	-9.8983
▁cola	-9.89872
▁Option	-9.89964
▁predefinida	-9.89989
▁Developer	-9.89991
▁año	-9.90257
▁png	-9.90266
▁online	-9.90289
▁Habilitar	-9.9033
▁xml	-9.90409
▁produce	-9.90462
▁reading	-9.90469
li	-9.90533
▁suele	-9.90541
para	-9.90547
▁Cargar	-9.90715
end	-9.90812
▁30	-9.90876
▁direction	-9.90964
ch	-9.90965
▁Written	-9.91087
▁authentication	-9.91087
▁aplicar	-9.91089
▁vaya	-9.91094
▁fallos	-9.91161
No	-9.9122
▁Session	-9.9136
▁importante	-9.91412
▁idea	-9.91492
▁representa	-9.91497
▁exportar	-9.91539
▁Shows	-9.91592
ur	-9.91735
▁partes	-9.91745
▁Displays	-9.91778
▁perform	-9.91894
▁security	-9.91943
yahoo	-9.91943
▁2009	-9.91949
▁Juan	-9.91949
▁jugar	-9.91957
▁Cuadra	-9.91985
▁11	-9.92018
sta	-9.9228
▁deberá	-9.92282
▁Center	-9.92309
▁impresoras	-9.92338
▁cups	-9.92385
▁únicamente	-9.92387
▁horas	-9.92461
▁marked	-9.92462
▁Disable	-9.92493
".	-9.92548
▁ellas	-9.92571
▁tarjeta	-9.92589
▁abrirá	-9.9263
▁attributes	-9.92761
▁1,	-9.92803
▁Derechos	-9.92896
▁Selected	-9.9303
▁merge	-9.93221
▁voz	-9.93242
▁otherwise	-9.9327
▁answer	-9.93391
▁arrastrar	-9.93401
▁resaltado	-9.93455
▁Grupo	-9.93526
▁Directory	-9.93712
▁desarrolladores	-9.93718
▁Pre	-9.93832
▁marco	-9.939
▁driver	-9.9407
▁controlador	-9.94074
▁lateral	-9.94101
eloihr	-9.94117
▁15	-9.94121
▁DPI	-9.94127
▁creación	-9.94136
▁Free	-9.94144
▁PPP	-9.94148
▁templates	-9.94258
▁categorías	-9.94259
▁gran	-9.94308
▁módem	-9.94339
▁cartera	-9.94344
▁subtítulos	-9.94372
▁grados	-9.94383
▁Language	-9.94417
▁unidad	-9.94478
▁2007	-9.94564
▁Motor	-9.94577
▁cadenas	-9.94597
▁pulsación	-9.94612
▁height	-9.94634
ka	-9.94684
bo	-9.94789
▁zona	-9.9479
▁grande	-9.94812
idad	-9.94827
▁Album	-9.94874
▁sino	-9.94917
▁management	-9.95021
▁junto	-9.95253
▁enemies	-9.95445
▁properly	-9.95453
▁wiki	-9.95467
▁Microsoft	-9.9547
▁Credits	-9.95511
▁did	-9.95517
▁rule	-9.95592
Cómo	-9.95683
▁scheme	-9.95712
▁fácil	-9.95802
▁componente	-9.95806
▁mucho	-9.95842
▁Access	-9.95856
▁contener	-9.95891
▁INDI	-9.95892
puedo	-9.95894
▁visualización	-9.95896
▁CDDB	-9.95924
▁opening	-9.95957
▁Co	-9.95965
▁execute	-9.96022
▁tar	-9.96031
▁normalmente	-9.96141
▁cookies	-9.96264
▁digital	-9.9627
▁parts	-9.96276
▁comment	-9.96278
▁secciones	-9.96399
▁drive	-9.96483
▁diferencias	-9.96509
▁sencilla	-9.96576
▁Support	-9.96586
▁Captura	-9.96646
▁Daniel	-9.9679
▁enemy	-9.96791
▁Also	-9.96805
▁Créditos	-9.96807
▁diseño	-9.96817
▁zero	-9.96847
▁insertar	-9.96866
▁requires	-9.96902
▁PC	-9.96916
▁Browser	-9.9692
▁sean	-9.96947
▁return	-9.97005
▁backup	-9.97064
▁componentes	-9.97066
▁picture	-9.9707
▁Collection	-9.97081
▁incluir	-9.97101
▁2002	-9.97127
▁conexiones	-9.97242
▁cuatro	-9.97242
▁necessary	-9.97242
▁vocabulary	-9.97242
▁éxito	-9.97242
▁Algunas	-9.97243
▁Imposible	-9.9725
▁Consulte	-9.97256
▁da	-9.97314
▁Mouse	-9.9738
▁vector	-9.97416
▁submenú	-9.97503
▁selector	-9.97505
("	-9.9756
▁capa	-9.9757
▁servers	-9.97648
▁Quick	-9.97673
▁Devuelve	-9.97697
▁depuración	-9.97697
▁Outlook	-9.97698
▁IRC	-9.97762
▁espera	-9.97833
▁Tag	-9.97845
▁manera	-9.97973
▁dominio	-9.98028
▁360	-9.98058
▁Space	-9.98082
▁submenu	-9.98179
▁hard	-9.98292
▁diferencia	-9.98405
▁Test	-9.9841
▁ktts	-9.98503
tor	-9.98549
▁progreso	-9.98612
▁repository	-9.9862
▁Actions	-9.98629
▁Limpiar	-9.98638
ida	-9.98697
▁Object	-9.98728
▁convert	-9.98775
▁casos	-9.98808
▁Cómo	-9.98827
▁formats	-9.98867
▁ejecuta	-9.98873
▁engine	-9.98888
im	-9.98908
▁arrow	-9.98961
▁ordenador	-9.99018
▁EXIF	-9.99073
▁comienzo	-9.99073
▁beginning	-9.99074
▁behavior	-9.99078
▁verá	-9.99078
▁Sets	-9.99107
▁equals	-9.99156
▁basado	-9.99157
con	-9.99217
▁enemigo	-9.99372
▁gestión	-9.99544
▁Ajustar	-9.99583
▁fichas	-9.99602
▁evitar	-9.99658
▁Contact	-9.99749
▁zoom	-9.99778
▁wallet	-9.99862
▁bookmarks	-9.99904
▁Ignore	-9.99936
▁semana	-9.99983
▁Mantener	-10
▁cielo	-10
▁cervisia	-10.0001
▁Usted	-10.0003
▁Table	-10.0005
▁exit	-10.0007
▁border	-10.0009
▁generar	-10.0013
▁Be	-10.0025
▁cálculo	-10.0033
▁minutos	-10.0034
▁cells	-10.004
▁identity	-10.0047
▁txt	-10.0047
▁Black	-10.0053
▁Guarda	-10.0054
▁contenidos	-10.0055
go	-10.0057
▁ofrece	-10.0058
▁ella	-10.0065
FOR	-10.0075
▁separate	-10.0082
▁reloj	-10.0094
▁bring	-10.01
▁viewer	-10.0104
Bus	-10.0105
▁personalizado	-10.0127
▁minutes	-10.0129
▁adicional	-10.0131
▁occurred	-10.0141
▁Ignorar	-10.0142
▁guarda	-10.0142
▁2004	-10.0143
▁actualización	-10.0144
▁less	-10.0145
▁missing	-10.0145
▁quit	-10.0145
▁JPEG	-10.0145
▁matches	-10.0162
KDEDIR	-10.0168
Region	-10.017
▁letter	-10.018
▁kturtle	-10.0188
▁typing	-10.0188
▁contrario	-10.0188
▁medium	-10.0191
▁aparecer	-10.0191
▁movimientos	-10.022
▁persona	-10.0221
▁tiles	-10.0225
▁showing	-10.0229
france	-10.0234
▁rendimiento	-10.0236
EDIT	-10.0236
▁recommended	-10.0245
▁Colors	-10.0249
▁distancia	-10.027
▁pequeña	-10.027
▁proyectos	-10.0271
▁domain	-10.028
▁Code	-10.0282
ste	-10.0282
▁atrás	-10.0284
▁verificación	-10.0284
▁controls	-10.0287
▁píxeles	-10.0288
▁highlighted	-10.0289
▁2003	-10.0292
▁utilizan	-10.0294
dir	-10.03
▁levels	-10.0313
▁ways	-10.0328
▁Gestor	-10.0332
▁four	-10.0334
▁traducción	-10.0334
▁Sun	-10.0348
▁component	-10.0353
▁completed	-10.0354
▁Traducid	-10.0358
▁marcar	-10.0358
▁lot	-10.036
▁remember	-10.0362
▁structure	-10.0366
▁cartas	-10.0372
▁Interface	-10.0373
▁lector	-10.0373
▁dejar	-10.0375
▁applied	-10.038
▁Kate	-10.0383
▁estrellas	-10.039
▁closed	-10.0411
▁applet	-10.0417
▁funcionalidad	-10.042
time	-10.0424
▁aún	-10.0425
▁chart	-10.0428
▁executable	-10.0429
▁juk	-10.0429
▁Importación	-10.0431
▁resolver	-10.0432
ad	-10.0442
▁modem	-10.0442
list	-10.0448
aime	-10.045
▁longitud	-10.0463
-8	-10.0468
▁Images	-10.0471
▁Most	-10.0471
▁things	-10.0475
▁Reset	-10.0476
▁segunda	-10.0478
▁wikipedia	-10.0478
▁Opción	-10.0478
▁mínimo	-10.0478
▁power	-10.0482
▁Frame	-10.0482
▁PNG	-10.0483
▁Details	-10.0485
ría	-10.049
pending	-10.0498
▁Special	-10.0501
▁ello	-10.0503
▁modos	-10.0506
▁Desarrollador	-10.0518
▁comentarios	-10.0525
▁PGP	-10.0527
▁acerca	-10.0528
▁servicios	-10.0538
▁Get	-10.0543
▁String	-10.0543
▁San	-10.0551
▁reference	-10.0564
▁unicode	-10.0576
▁Arrow	-10.0577
▁CA	-10.0578
▁2008	-10.058
▁South	-10.0584
▁moved	-10.0589
▁St	-10.0589
▁username	-10.0589
▁accept	-10.0601
▁crea	-10.0606
▁argument	-10.0607
▁24	-10.0609
▁question	-10.0617
▁Página	-10.0617
▁Warning	-10.0619
▁entire	-10.0622
▁cost	-10.0624
▁defecto	-10.0625
▁further	-10.0625
▁capítulo	-10.0626
▁llamadas	-10.063
▁intentar	-10.063
▁RAW	-10.0631
▁Setup	-10.0637
▁notas	-10.0645
▁toolbars	-10.0646
▁sets	-10.0649
▁estén	-10.0652
dor	-10.0661
▁away	-10.0663
▁Quanta	-10.0667
▁Alguno	-10.0675
▁enough	-10.0675
▁discusión	-10.0675
▁disposición	-10.0675
▁exportación	-10.0676
▁Specify	-10.0677
▁chapter	-10.0677
▁canción	-10.069
▁parece	-10.07
▁blog	-10.07
▁propia	-10.0716
▁regla	-10.0717
▁marcador	-10.0718
▁Usuario	-10.0721
pe	-10.0723
=\\\\{	-10.0725
▁raíz	-10.0725
▁OpenVPN	-10.0725
▁formatos	-10.0729
▁Input	-10.0729
▁requested	-10.0734
▁board	-10.0736
▁alta	-10.0737
▁personas	-10.0741
▁upload	-10.0753
»	-10.0771
▁ie	-10.0773
▁energía	-10.0775
▁Memory	-10.0775
▁desired	-10.0776
▁sangrado	-10.0776
▁kommander	-10.0776
▁bool	-10.0781
▁random	-10.0783
▁Style	-10.0787
▁drawn	-10.0788
▁2000	-10.0802
▁remota	-10.0818
like	-10.0822
▁Layout	-10.0823
▁McBride	-10.0826
▁Light	-10.0826
▁according	-10.0826
▁compilación	-10.0827
▁daemon	-10.0829
▁Asia	-10.0834
▁equal	-10.0844
ies	-10.0866
▁Bookmarks	-10.0868
▁detallada	-10.087
▁Tema	-10.0872
▁lluvia	-10.0877
▁puntero	-10.0877
▁Environment	-10.0877
▁brillo	-10.0877
▁KPilot	-10.0877
▁Más	-10.0877
▁cuadrado	-10.0877
▁Out	-10.0883
▁filas	-10.0885
▁complementos	-10.0889
▁añade	-10.0889
pa	-10.0893
mi	-10.09
▁yo	-10.09
▁They	-10.0906
▁updated	-10.0907
▁determinar	-10.0908
▁sheet	-10.092
▁conectado	-10.0922
▁símbolo	-10.0922
▁Normalmente	-10.0932
▁2001	-10.0934
▁Tree	-10.0934
▁Crea	-10.0936
bar	-10.0939
▁Todas	-10.0946
▁person	-10.095
▁objetivo	-10.0971
▁He	-10.0972
▁keyword	-10.0976
como	-10.0978
▁Detener	-10.0979
▁temporary	-10.0981
▁serie	-10.0984
▁resto	-10.0984
▁Estas	-10.0989
▁Pegar	-10.0989
▁onto	-10.0991
▁cvs	-10.0992
▁normally	-10.0994
▁downloaded	-10.0995
▁best	-10.0998
▁Copia	-10.1007
▁Colores	-10.1008
▁model	-10.1009
▁Messages	-10.1012
▁medios	-10.1017
▁cinta	-10.1023
▁sintaxis	-10.103
▁Plasma	-10.1032
▁Inicio	-10.1035
ja	-10.1044
▁Lock	-10.1047
▁nota	-10.1048
▁pointer	-10.1049
▁inicie	-10.1067
▁formulario	-10.1077
▁trying	-10.1082
▁desplazamiento	-10.1082
▁prioridad	-10.1082
▁overwrite	-10.1083
▁Acciones	-10.1084
▁Datos	-10.109
▁conectar	-10.109
▁printers	-10.1091
▁replaced	-10.1097
▁regulares	-10.1115
▁week	-10.1129
▁fusión	-10.1134
▁Obtener	-10.1136
▁arranque	-10.114
▁cuentas	-10.1142
▁arguments	-10.1145
▁visual	-10.1148
▁described	-10.1161
▁Establece	-10.1169
counti	-10.118
▁Example	-10.1186
▁respuestas	-10.1186
▁categories	-10.1191
▁Step	-10.1191
▁man	-10.1206
click	-10.121
▁Yes	-10.1211
▁actualizar	-10.1215
▁relative	-10.122
▁haber	-10.1222
▁contacts	-10.1228
▁Usa	-10.1231
▁intro	-10.1232
▁graphical	-10.1237
▁views	-10.1239
▁Miguel	-10.1239
▁puntuaciones	-10.124
▁comienza	-10.124
▁Modify	-10.1241
▁Espacio	-10.1242
▁Standard	-10.1242
▁Automatic	-10.1245
▁Value	-10.1259
▁incluyendo	-10.126
▁adjust	-10.1268
ers	-10.1275
▁ancho	-10.1283
▁Estilo	-10.1288
▁Reload	-10.1293
▁automatic	-10.1295
▁encrypted	-10.1296
nd	-10.1309
▁posibles	-10.1327
▁Position	-10.1337
▁permitir	-10.1338
▁Bottom	-10.1345
▁Automatically	-10.1346
▁Available	-10.1347
▁falló	-10.1347
▁never	-10.1347
▁KOrganizer	-10.1347
▁Ben	-10.1348
▁destination	-10.1348
▁policy	-10.1348
▁cases	-10.1354
▁contraste	-10.1355
▁prevent	-10.1371
▁bin	-10.1375
▁factor	-10.139
▁clear	-10.1394
▁Channel	-10.1398
▁Martin	-10.14
▁ratio	-10.14
▁tape	-10.1401
▁High	-10.1402
▁Keyboard	-10.1403
▁asked	-10.141
▁argumento	-10.141
Z	-10.1415
▁developers	-10.1418
▁located	-10.142
▁Loading	-10.1426
▁generales	-10.1428
▁cambiado	-10.1437
son	-10.1438
Country	-10.1441
▁cosas	-10.1442
▁MP	-10.1444
▁poco	-10.1451
▁KStars	-10.1453
▁KPlayer	-10.1453
▁dispone	-10.1454
▁rojo	-10.146
ido	-10.1461
▁languages	-10.1467
▁hold	-10.1472
▁channels	-10.1476
▁included	-10.1476
▁Elimina	-10.1481
▁tasks	-10.1486
HOME	-10.1504
▁addresses	-10.1505
▁Comprobar	-10.1507
▁DNS	-10.1507
▁Ejemplo	-10.1507
▁URI	-10.1508
▁Column	-10.1509
▁conectarse	-10.1511
▁Wizard	-10.1511
▁Reiniciar	-10.1511
▁estilos	-10.1513
▁About	-10.1514
▁Existen	-10.1527
▁ej	-10.153
▁elección	-10.1538
▁proporcionar	-10.1544
▁basic	-10.1545
▁fall	-10.1552
▁var	-10.1552
▁azul	-10.1557
▁translations	-10.1557
▁music	-10.156
▁externo	-10.1561
Seguro	-10.1561
▁Escrito	-10.1561
▁Overwrite	-10.1561
▁consola	-10.1561
▁desconocida	-10.1561
▁kmid	-10.1561
▁priority	-10.1563
▁Word	-10.1563
▁KDEPrint	-10.1564
▁diagrama	-10.1569
vi	-10.157
▁RGB	-10.1571
▁Item	-10.1576
▁secuencia	-10.159
▁bloque	-10.1595
▁City	-10.1596
▁interrupción	-10.1616
▁changing	-10.1616
▁Deshacer	-10.1619
▁pane	-10.1625
▁intenta	-10.164
▁im	-10.1645
▁cuadros	-10.165
Shortcut	-10.166
Está	-10.166
Language	-10.166
▁others	-10.1662
ian	-10.1663
▁máxima	-10.1671
▁POP	-10.1672
▁GNU	-10.1673
▁detailed	-10.1674
▁min	-10.1674
▁compresión	-10.1676
▁cancel	-10.1677
▁capaz	-10.1678
▁Pero	-10.1679
▁paper	-10.1681
▁convertir	-10.169
▁irc	-10.1693
▁But	-10.1696
▁America	-10.1698
land	-10.1701
▁coste	-10.1709
▁miniaturas	-10.1717
▁deslizador	-10.1718
▁Pause	-10.1718
▁Isla	-10.172
▁largo	-10.1727
▁kexi	-10.1727
▁White	-10.1728
▁argumentos	-10.1729
▁better	-10.1731
▁Rain	-10.1732
▁menubar	-10.1733
▁expressions	-10.1741
ga	-10.1766
▁amp	-10.1768
▁conf	-10.1773
▁alrededor	-10.1773
▁forward	-10.1777
lr	-10.1779
▁nnn	-10.1782
▁immediately	-10.1782
▁análisis	-10.1782
▁introducido	-10.1783
▁política	-10.1783
▁predefinido	-10.1784
▁compression	-10.1784
▁altura	-10.1786
▁nodo	-10.1789
▁longer	-10.179
▁pulsada	-10.1793
▁URLs	-10.18
▁%{	-10.1813
▁prefix	-10.1821
▁versions	-10.183
▁Mi	-10.1831
▁multi	-10.1835
▁Ubicación	-10.1837
▁foco	-10.1837
▁metadatos	-10.1837
▁middle	-10.1837
▁juan	-10.1838
▁Always	-10.1839
▁DVI	-10.1841
▁apodo	-10.1842
▁corrección	-10.1842
▁cubic	-10.1843
▁graph	-10.1844
ú	-10.1847
▁correcto	-10.1848
▁dig	-10.1848
▁Detalles	-10.1856
istricts	-10.1864
▁Estos	-10.1871
▁Monitor	-10.1876
▁mantiene	-10.1878
▁Write	-10.1879
▁cualquiera	-10.1883
▁affect	-10.1887
▁decimal	-10.189
▁q	-10.1892
▁Elegir	-10.1894
▁Rodríguez	-10.1894
▁Volver	-10.1894
▁sending	-10.1894
▁Interfaz	-10.1894
▁adjunto	-10.1897
▁Reemplazar	-10.1898
▁Bo	-10.1899
▁Marcar	-10.1904
▁public	-10.1911
▁letters	-10.1915
▁Descargar	-10.1915
▁addition	-10.1938
▁reproductor	-10.1942
▁Etiqueta	-10.1947
▁Viewer	-10.1947
▁Additional	-10.1947
▁encima	-10.195
▁cierre	-10.195
▁Botón	-10.195
▁Layer	-10.1951
▁comentario	-10.1953
▁Modificar	-10.1956
▁Línea	-10.1957
▁Sí	-10.1959
res	-10.196
▁Lago	-10.1968
▁printed	-10.1976
▁quot	-10.1988
▁calculate	-10.1991
▁break	-10.1994
▁Alarm	-10.1996
dico	-10.2001
▁actually	-10.2003
▁IPTC	-10.2007
▁duración	-10.2007
▁anchura	-10.2008
▁Dispositivo	-10.2012
▁angle	-10.2013
▁Version	-10.2014
▁Book	-10.2018
▁array	-10.2022
ti	-10.2031
",	-10.2037
▁resources	-10.2042
▁existen	-10.2046
▁proveedor	-10.2057
▁manage	-10.2062
▁cifrar	-10.2063
superio	-10.2064
▁yourself	-10.2065
▁boot	-10.2067
▁transfer	-10.2067
▁Setting	-10.2075
▁certificates	-10.2082
▁hours	-10.2083
▁bugs	-10.2091
;).	-10.2096
▁hojas	-10.211
▁node	-10.211
▁Indica	-10.2114
▁Volume	-10.2116
ya	-10.212
▁salvapantallas	-10.2121
▁mailody	-10.2123
▁Google	-10.2126
▁demasiado	-10.2127
▁realmente	-10.2127
▁Home	-10.2133
▁Hora	-10.2133
▁jobs	-10.2134
▁Connect	-10.2134
▁BSD	-10.2139
%2	-10.2151
▁deberían	-10.2154
▁Class	-10.2157
▁count	-10.2164
▁Any	-10.2166
▁post	-10.2173
▁obtain	-10.2179
▁Ca	-10.2179
▁relación	-10.218
config	-10.2181
▁Small	-10.2182
")	-10.2182
▁dibujo	-10.2185
▁pruebas	-10.2186
▁ejecutable	-10.2186
▁scheduled	-10.2189
▁dibujar	-10.2193
▁inserted	-10.2195
▁%1%	-10.2199
▁compatible	-10.22
▁escala	-10.221
ón	-10.2214
▁colocar	-10.2232
▁América	-10.2237
▁Posición	-10.2237
▁playback	-10.2238
▁Manu	-10.2239
great	-10.224
▁cubo	-10.2244
previsualización	-10.2246
▁perfiles	-10.2265
▁Sol	-10.2273
see	-10.2274
▁draw	-10.2278
▁doing	-10.2281
1:	-10.2282
▁rompecabezas	-10.2296
ritain	-10.2296
▁efectos	-10.2296
▁country	-10.2296
▁nunca	-10.2298
▁ca	-10.2301
▁machine	-10.2303
▁leído	-10.2305
▁related	-10.231
jo	-10.2318
▁bases	-10.2318
vicente	-10.2323
▁url	-10.2324
▁cargado	-10.233
tra	-10.234
▁opens	-10.2341
▁Sort	-10.2343
▁loading	-10.2349
▁reset	-10.235
▁Global	-10.2355
▁ángulo	-10.2355
use	-10.2358
▁TLS	-10.2358
▁however	-10.2359
▁tasa	-10.236
▁blank	-10.2361
▁frecuencia	-10.2362
▁cuerpo	-10.2363
▁piece	-10.2364
▁delay	-10.2367
▁pregunta	-10.2369
▁Fin	-10.237
▁usan	-10.2371
version	-10.2374
▁Unit	-10.238
▁Recent	-10.2385
▁actuales	-10.2387
▁graphics	-10.2394
evilla	-10.241
▁Back	-10.2411
▁Screenshot	-10.2414
migue	-10.2414
q	-10.2414
▁Peter	-10.2416
▁kind	-10.2418
▁conversión	-10.2418
▁Bookmark	-10.2424
▁Resource	-10.2424
▁Report	-10.2427
all	-10.2432
▁grandes	-10.2442
▁North	-10.2446
▁kig	-10.2456
▁sections	-10.2466
▁2)	-10.2469
▁ktouch	-10.2473
▁configuraciones	-10.2474
▁papelera	-10.2474
▁frase	-10.2475
▁History	-10.2477
▁unidades	-10.2485
▁Asegúrese	-10.2485
▁Include	-10.2488
▁Folders	-10.25
va	-10.2501
18	-10.2506
▁signo	-10.251
▁almacenar	-10.2511
sto	-10.2517
▁requiere	-10.2518
mbrello	-10.2533
▁Molina	-10.2533
▁Terminal	-10.2538
▁Utiliza	-10.2539
net	-10.2548
▁executed	-10.2549
▁estadísticas	-10.2549
vo	-10.256
▁unless	-10.257
;?	-10.2577
▁frases	-10.2583
begin	-10.2588
▁highlight	-10.2593
▁Tasa	-10.2594
class	-10.2595
▁generate	-10.2596
▁ocupado	-10.2596
▁Versión	-10.2596
▁Germany	-10.2598
▁Max	-10.2604
▁celeste	-10.2604
▁NAME	-10.2605
ac	-10.2612
▁PPD	-10.2612
usa	-10.2618
▁Me	-10.262
▁menor	-10.2646
pi	-10.2651
▁Bézier	-10.2654
▁rejilla	-10.2654
▁Fondo	-10.2654
▁duration	-10.2654
▁quick	-10.2655
▁Desde	-10.2658
▁built	-10.2659
▁Merge	-10.2659
▁previously	-10.2662
per	-10.2666
▁sequence	-10.2666
▁escalera	-10.2666
▁attachment	-10.2668
ver	-10.2669
▁bookmark	-10.267
▁toda	-10.2676
hilippines	-10.2677
dash	-10.2682
▁cierto	-10.2684
hi	-10.2695
▁mueve	-10.27
▁wrong	-10.2715
▁KDevelop	-10.2715
▁Salida	-10.2715
▁gamma	-10.2715
▁Instalación	-10.2715
▁binary	-10.2715
▁internet	-10.2715
▁[%1]	-10.2715
▁Just	-10.2717
▁micro	-10.2717
▁común	-10.2717
▁John	-10.2719
▁única	-10.2725
▁body	-10.2727
▁Width	-10.273
▁Box	-10.273
je	-10.2734
▁verificar	-10.2747
▁muestre	-10.2752
▁Documento	-10.2752
▁dice	-10.2762
▁ALSA	-10.2776
▁diario	-10.2777
▁Creating	-10.2777
▁syntax	-10.2779
▁Revilla	-10.278
▁interval	-10.2782
Quiere	-10.2783
▁checking	-10.2786
▁split	-10.2791
▁toggle	-10.2792
▁libro	-10.2794
mo	-10.2795
▁dar	-10.2797
▁w	-10.28
▁anteriores	-10.2814
▁HP	-10.2826
▁completado	-10.2827
value	-10.2835
KDE	-10.2836
▁Búsqueda	-10.2838
▁Conexión	-10.2838
▁petición	-10.2838
▁Management	-10.2838
▁inmediatamente	-10.2839
▁Avanzado	-10.2839
▁metadata	-10.2839
▁supuesto	-10.2841
▁baja	-10.2841
▁advanced	-10.2842
command	-10.2847
▁questions	-10.2851
▁reciente	-10.2851
▁ladder	-10.2853
▁labeled	-10.2855
▁1.0	-10.2859
▁módulos	-10.2893
▁posibilidad	-10.2893
▁checkbox	-10.2894
▁suficiente	-10.2897
▁That	-10.29
▁Paper	-10.2901
▁Reducir	-10.2901
▁going	-10.2902
▁Intervalo	-10.2904
▁Map	-10.2909
Pa	-10.2914
▁demonio	-10.2915
▁lenguaje	-10.2916
▁consulte	-10.2918
sunit	-10.2919
▁720	-10.2923
▁rows	-10.2927
▁conseguir	-10.2927
▁mano	-10.2927
▁trabajar	-10.2934
▁functionality	-10.2963
▁marble	-10.2963
▁navegar	-10.2965
▁Kolab	-10.2965
▁Ninguno	-10.2965
▁Kile	-10.2966
▁Ro	-10.2966
▁am	-10.2967
▁Turn	-10.2968
▁Registro	-10.2977
▁asiento	-10.2979
▁Function	-10.2988
▁solapa	-10.2989
▁And	-10.2998
;...	-10.2998
▁coincide	-10.301
▁suma	-10.3011
RW	-10.3012
▁admite	-10.3015
▁strings	-10.3023
Server	-10.3024
▁Summary	-10.3026
▁comprobación	-10.3026
▁Necesita	-10.3026
▁personalizar	-10.3026
▁mundo	-10.3027
▁official	-10.3027
▁anything	-10.3028
key	-10.3029
▁menus	-10.303
▁whenever	-10.3031
▁símbolos	-10.3034
▁núcleo	-10.3041
▁difference	-10.3043
▁degrees	-10.3046
▁adding	-10.3046
▁kg	-10.3047
▁stars	-10.3058
▁verde	-10.306
▁instantánea	-10.3061
▁meta	-10.3066
▁encuentran	-10.3069
▁reduce	-10.3072
▁país	-10.3081
▁decide	-10.3081
▁services	-10.3087
▁resolución	-10.3089
▁visión	-10.3089
▁Forward	-10.3091
▁terminado	-10.3092
▁together	-10.3093
▁Archive	-10.3093
▁Host	-10.3094
▁release	-10.3094
▁Marcos	-10.3098
▁Login	-10.31
▁Starting	-10.3104
▁Dibujar	-10.3111
▁Reference	-10.3112
▁placed	-10.3116
▁contra	-10.3117
▁fin	-10.3124
dez	-10.3128
ID	-10.313
▁abra	-10.3138
▁qt	-10.314
▁offers	-10.315
▁news	-10.3151
▁Appearance	-10.3153
▁resolution	-10.3153
▁solución	-10.3153
▁elegido	-10.3153
▁planificación	-10.3153
▁fast	-10.3153
▁Simple	-10.3154
▁Establezc	-10.3154
▁Printing	-10.3155
▁aspect	-10.3163
tro	-10.3164
tar	-10.3171
▁unique	-10.3177
▁globales	-10.318
▁Cut	-10.3184
▁logo	-10.319
▁Convert	-10.3191
▁contienen	-10.3193
▁consejos	-10.3198
▁front	-10.3214
▁MySQL	-10.3217
▁almacenamiento	-10.3217
▁higher	-10.3228
em	-10.323
▁dcop	-10.3232
lex	-10.3233
▁13	-10.3233
▁flujo	-10.3235
▁interno	-10.3236
▁transferencia	-10.3236
▁cambiará	-10.3238
▁flag	-10.3243
▁específicas	-10.325
▁looks	-10.326
▁debug	-10.3272
▁Day	-10.3272
▁Plugins	-10.3273
▁modules	-10.3274
▁coordinates	-10.3278
▁near	-10.328
▁definición	-10.3281
▁ambos	-10.3281
▁nieve	-10.3281
▁cube	-10.3282
▁PHP	-10.3282
▁sentido	-10.3283
▁cambie	-10.3283
▁KPhotoAlbum	-10.3284
▁sourceforge	-10.3284
▁Tiene	-10.3288
▁acuerdo	-10.329
▁mf	-10.3294
▁0,	-10.3302
▁Label	-10.3319
ent	-10.332
▁Returns	-10.3323
▁predeterminados	-10.3337
mm	-10.3337
▁Kexi	-10.3346
▁rango	-10.3346
▁bastante	-10.3346
▁Cargando	-10.3348
▁repetición	-10.3352
▁asignar	-10.337
▁Service	-10.3373
▁socket	-10.3373
▁Especifica	-10.3374
▁%2,	-10.3378
rse	-10.3393
edu	-10.34
▁specifie	-10.34
▁connections	-10.3405
▁Part	-10.3405
▁Acerca	-10.3405
▁patrones	-10.3412
▁invitación	-10.3412
▁balance	-10.3415
▁against	-10.3415
▁themes	-10.3418
▁headers	-10.3419
▁components	-10.3429
▁drawing	-10.3431
▁individuales	-10.3431
ter	-10.3437
▁generated	-10.344
▁mailing	-10.3449
▁1.	-10.3454
▁Button	-10.3457
segúrese	-10.3464
▁mp	-10.3464
▁Browse	-10.3472
▁Carsten	-10.3477
▁Rafael	-10.3477
▁inglés	-10.3477
▁dragging	-10.3478
▁Maintainer	-10.3478
▁modificado	-10.3479
▁notificaciones	-10.3479
▁Jami	-10.348
▁debido	-10.3483
▁fm	-10.3487
▁(«	-10.3487
▁compilar	-10.349
▁dictionary	-10.3491
▁ejecute	-10.3493
▁Man	-10.3496
▁Entrada	-10.35
▁Comentario	-10.3503
▁Sound	-10.3505
▁bordes	-10.3508
▁existentes	-10.3511
▁clases	-10.3514
▁años	-10.3516
▁Or	-10.3516
▁design	-10.352
▁separated	-10.3524
▁Upload	-10.3527
cu	-10.3538
ador	-10.354
▁escritorios	-10.3542
▁execution	-10.3544
▁little	-10.3544
▁php	-10.3544
▁duro	-10.3544
▁schedule	-10.3544
▁handle	-10.3545
▁sincronización	-10.3545
▁USB	-10.3545
▁Altura	-10.3545
▁Regular	-10.3546
▁future	-10.3546
▁rápidamente	-10.3547
▁Encoding	-10.3547
▁Netscape	-10.3549
▁%2)	-10.3549
▁Diff	-10.355
▁slide	-10.3553
he	-10.3556
▁Robert	-10.3557
To	-10.3558
▁seguir	-10.3564
▁invitation	-10.3567
▁Task	-10.3567
▁subject	-10.3568
▁Otra	-10.3569
▁Return	-10.357
one	-10.3571
cha	-10.3574
▁frames	-10.3586
ten	-10.3589
▁refer	-10.3592
▁initial	-10.3602
▁slow	-10.3605
▁Añade	-10.361
▁easier	-10.361
▁third	-10.361
▁utility	-10.361
▁música	-10.3611
▁MPlayer	-10.3611
▁Scale	-10.3612
▁tarde	-10.3613
▁having	-10.3614
▁KOffice	-10.3615
▁SVG	-10.3617
▁creará	-10.3617
mb	-10.3618
▁diccionario	-10.3634
9:	-10.3635
▁elimina	-10.3635
▁pop	-10.3638
▁especificada	-10.364
▁scan	-10.3656
▁period	-10.3667
▁Redo	-10.367
▁14	-10.3675
ban	-10.3676
▁California	-10.3677
▁Correo	-10.3677
▁khelpcenter	-10.3677
▁rather	-10.3677
▁UML	-10.3678
▁restart	-10.3682
▁Index	-10.3682
▁probablemente	-10.3684
▁maintainer	-10.3684
▁const	-10.3686
▁paste	-10.3686
▁world	-10.3691
▁Ma	-10.3693
ck	-10.37
▁incorrecta	-10.3706
▁minúsculas	-10.371
▁Selector	-10.3711
▁envía	-10.373
▁Flecha	-10.3745
▁nothing	-10.3745
▁Grid	-10.3746
▁development	-10.3746
▁creation	-10.3748
▁fácilmente	-10.3748
▁quickly	-10.3748
▁activate	-10.3748
▁300	-10.3749
▁accounts	-10.3765
▁alto	-10.3767
▁pulsado	-10.3772
▁juegos	-10.3778
PATH	-10.3795
▁past	-10.3799
▁identificador	-10.381
▁Zawinski	-10.3813
▁prefijo	-10.3813
▁Authentication	-10.3814
▁embedded	-10.3815
▁Range	-10.3815
KDEHOME	-10.3816
essive	-10.3817
▁Double	-10.3817
▁Empty	-10.3819
▁Split	-10.3819
▁pegar	-10.3821
▁buena	-10.3824
▁smaller	-10.3825
car	-10.3825
ge	-10.383
▁mejores	-10.3834
▁flecha	-10.3841
▁Cuenta	-10.3842
▁State	-10.3849
za	-10.3852
▁comando	-10.3853
KChar	-10.3873
▁ex	-10.3874
▁propios	-10.3879
▁además	-10.3881
▁Otherwise	-10.3882
▁combinación	-10.3882
▁KControl	-10.3882
▁Anchura	-10.3883
▁Código	-10.3883
▁brightness	-10.3884
▁launch	-10.3887
ho	-10.3888
▁errors	-10.3889
▁Tray	-10.389
lu	-10.3897
200	-10.3901
▁telescopio	-10.3908
▁desactivado	-10.3909
nte	-10.3916
▁comandos	-10.3922
▁Drag	-10.3925
▁ball	-10.393
▁van	-10.3938
▁lock	-10.3945
▁Protocol	-10.3946
▁confianza	-10.3952
▁Proyecto	-10.3953
▁copied	-10.3954
▁dificultad	-10.3954
▁teclear	-10.3957
▁dígitos	-10.3962
▁Increase	-10.3966
▁contrast	-10.3967
▁RAM	-10.3968
▁along	-10.3968
▁cover	-10.3973
▁solution	-10.3978
▁Na	-10.3989
▁shape	-10.3992
▁differences	-10.4001
▁gets	-10.4004
▁Islands	-10.4009
▁adjuntos	-10.4015
▁luz	-10.402
▁exploración	-10.402
▁Snow	-10.4021
▁My	-10.4024
▁clock	-10.4026
▁returned	-10.403
▁determinado	-10.4032
▁taken	-10.4034
▁feed	-10.4049
set	-10.4053
op	-10.4054
▁Win	-10.4071
▁branch	-10.4084
▁resize	-10.4087
▁Del	-10.4088
▁Kommander	-10.409
▁cuyo	-10.409
▁arrastre	-10.4091
Ctrl	-10.4095
▁represent	-10.4095
▁marcas	-10.4095
▁(%1	-10.4105
▁API	-10.4106
▁brackets	-10.4109
so	-10.4109
▁games	-10.411
▁comes	-10.411
ig	-10.4118
▁term	-10.412
▁become	-10.4121
▁antiguo	-10.4126
view	-10.4132
ico	-10.4134
▁práctica	-10.4149
▁-1	-10.4152
▁Filters	-10.416
▁Ontario	-10.416
ameroon	-10.416
▁Remember	-10.416
▁Introducir	-10.416
▁Rock	-10.4162
▁difficulty	-10.4164
▁DCC	-10.4165
po	-10.4165
▁Meta	-10.4169
▁ignored	-10.4172
▁assigned	-10.4172
▁activated	-10.4174
▁subtitles	-10.4182
▁kdesu	-10.419
▁Asistente	-10.4192
▁soltar	-10.4199
▁mas	-10.4204
▁cron	-10.4205
▁coma	-10.4208
▁UID	-10.4212
ul	-10.4213
▁ignore	-10.4226
▁Radio	-10.4228
▁cuadrados	-10.4231
▁conversación	-10.4231
▁comunes	-10.4231
▁Is	-10.4234
Poss	-10.4235
▁sessions	-10.4236
▁Rotate	-10.4237
▁Debería	-10.4239
▁z	-10.4239
▁Expand	-10.4243
box	-10.4245
▁labels	-10.4247
▁idiomas	-10.4256
▁IPP	-10.426
▁mak	-10.4266
▁Otro	-10.4267
▁Low	-10.4267
▁Event	-10.4268
▁Va	-10.4269
▁modes	-10.4288
number	-10.4292
▁Controlador	-10.4295
▁aprender	-10.43
▁oscuro	-10.4303
▁Aunque	-10.4303
▁Construir	-10.4303
▁Módulo	-10.4303
▁krfb	-10.4303
▁Thomas	-10.4303
▁Overview	-10.4303
▁dicha	-10.4303
▁Resize	-10.4304
▁Multiple	-10.4304
▁Mar	-10.4304
▁browsing	-10.4304
▁OpenGL	-10.4305
▁combo	-10.4309
▁ssh	-10.4309
ted	-10.4311
▁basada	-10.4311
down	-10.4311
▁percentage	-10.4312
▁Configura	-10.4322
▁attempt	-10.433
▁específica	-10.4335
▁Punto	-10.4337
▁específico	-10.4338
▁usada	-10.4349
▁Limit	-10.4366
▁interfaces	-10.4367
▁formula	-10.4368
▁Ciudad	-10.4375
▁Festival	-10.4375
▁flotante	-10.4375
▁Id	-10.4376
▁round	-10.4377
▁recomienda	-10.4378
▁fax	-10.4379
▁upper	-10.4379
default	-10.4381
▁includes	-10.4383
▁CSV	-10.4386
▁opt	-10.4393
▁controla	-10.4409
▁Blue	-10.4409
2)	-10.4412
▁reason	-10.4412
out	-10.4416
▁Operation	-10.4418
▁low	-10.4418
▁(1	-10.4428
▁customize	-10.4436
▁region	-10.4439
▁realiza	-10.4439
▁PATH	-10.4444
▁Speed	-10.4447
▁Usage	-10.4447
▁Marble	-10.4448
▁depurador	-10.445
ity	-10.4451
▁chat	-10.4452
▁Chat	-10.4453
regions	-10.4454
▁detected	-10.4454
▁Category	-10.4456
▁US	-10.4457
▁pedirá	-10.4457
▁record	-10.4459
rico	-10.4459
tu	-10.4466
▁llama	-10.4467
▁tutorial	-10.4474
▁comments	-10.448
sin	-10.4483
▁enviado	-10.4484
▁lost	-10.4485
▁distance	-10.4485
▁adecuado	-10.4486
▁"%2"	-10.4487
▁else	-10.4489
edit	-10.4493
▁star	-10.4518
▁Pantalla	-10.452
▁dónde	-10.452
▁respaldo	-10.452
▁groupware	-10.452
▁Konversation	-10.4521
▁CSS	-10.4522
▁ktimetracker	-10.4523
▁partman	-10.4523
▁kicker	-10.4524
▁Random	-10.4524
▁fixed	-10.4525
▁textbox	-10.4527
▁alias	-10.4528
▁%2:	-10.4529
▁Está	-10.4538
▁Personal	-10.4546
ER	-10.455
▁Tipos	-10.4553
▁curva	-10.4557
▁comprimido	-10.4557
▁diapositiva	-10.4557
▁cancelar	-10.4561
mon	-10.4572
▁Work	-10.4578
▁Let	-10.4579
▁displaying	-10.4582
▁preguntas	-10.4582
▁Codificación	-10.4593
▁ocurrido	-10.4593
▁Visor	-10.4594
▁kmix	-10.4594
▁operating	-10.4594
▁separator	-10.4594
▁entering	-10.4594
valor	-10.4595
▁effects	-10.46
▁envíe	-10.4602
▁mass	-10.4611
▁Ask	-10.4623
▁administrator	-10.4631
▁puzzle	-10.4636
▁50	-10.4637
log	-10.4638
▁come	-10.464
▁EN	-10.4642
▁Highlight	-10.4643
▁Primer	-10.4654
▁kphotoalbum	-10.4668
▁private	-10.4668
▁electrónica	-10.4668
▁KIO	-10.4669
▁sidebar	-10.4669
▁controller	-10.4669
avier	-10.467
▁necesitan	-10.4675
Plugin	-10.4677
object	-10.4677
ry	-10.4678
2001	-10.4692
▁translated	-10.4702
qui	-10.4706
▁reiniciar	-10.471
▁his	-10.4716
File	-10.4716
▁MS	-10.4717
▁poner	-10.4719
▁DTEP	-10.4719
▁stream	-10.4722
com	-10.4727
▁requests	-10.473
▁par	-10.4733
▁photo	-10.4733
ier	-10.4733
▁2005	-10.4741
▁Align	-10.4742
oldrunner	-10.4742
▁Wikipedia	-10.4742
▁cuadrícula	-10.4742
russia	-10.4742
▁Stephan	-10.4742
▁lección	-10.4742
▁Convertir	-10.4743
▁received	-10.4752
▁completion	-10.4754
▁aplica	-10.4759
▁establece	-10.4766
Re	-10.4772
▁busca	-10.4775
▁UTF	-10.4779
▁begin	-10.4788
▁ps	-10.4792
▁bloqueo	-10.4795
▁fr	-10.4801
▁our	-10.4814
▁Public	-10.4815
▁Context	-10.4815
▁OS	-10.4816
▁floppy	-10.4817
▁HotSync	-10.4817
▁Software	-10.4817
▁Configuring	-10.4817
▁Acción	-10.4818
▁konsolekalendar	-10.4818
▁definida	-10.4818
▁Columns	-10.4819
▁Permite	-10.4819
▁introduce	-10.4819
▁Earth	-10.482
▁Case	-10.482
▁preguntará	-10.482
▁TCP	-10.4821
▁parent	-10.4827
▁Sync	-10.4827
Property	-10.4827
▁scale	-10.4827
▁transactions	-10.4835
ki	-10.4835
▁2.0	-10.4836
▁sync	-10.4845
che	-10.4845
▁indicado	-10.485
▁"%1".	-10.4851
▁pixel	-10.4854
▁definition	-10.4859
▁Transfer	-10.4861
▁prompt	-10.4868
▁tengan	-10.4871
▁unos	-10.4873
▁importantes	-10.4875
▁Look	-10.4883
▁Depend	-10.4887
ap	-10.4888
▁Krusader	-10.4893
▁construir	-10.4893
▁rename	-10.4894
min	-10.4897
▁modelo	-10.4899
▁Basic	-10.4899
▁25	-10.49
▁cabeceras	-10.4902
▁phone	-10.4906
user	-10.4908
▁France	-10.4917
▁likely	-10.4928
les	-10.4929
▁Execute	-10.493
▁boxes	-10.4931
▁tarjetas	-10.4933
▁hint	-10.4937
▁bola	-10.4938
▁website	-10.494
▁Borra	-10.4941
▁Photo	-10.4944
▁True	-10.4954
▁browse	-10.4955
▁éste	-10.4969
▁Shape	-10.497
map	-10.4971
▁Marcadores	-10.4972
▁Subject	-10.4972
▁Disk	-10.4973
▁Height	-10.4977
▁Since	-10.4977
▁completamente	-10.4979
prefix	-10.4981
▁summary	-10.4981
▁dates	-10.4983
▁reemplazar	-10.4986
▁»)	-10.4988
▁guardan	-10.499
▁sort	-10.4996
rea	-10.5002
ness	-10.5008
▁escrito	-10.5014
▁coincidencia	-10.5014
▁Pista	-10.5015
▁edge	-10.5015
▁porcentaje	-10.5016
De	-10.5016
▁CRL	-10.502
▁leídos	-10.5036
▁Cierr	-10.5044
▁instalados	-10.5044
▁Tierra	-10.5046
▁kchart	-10.5047
▁snow	-10.5047
▁algorithm	-10.5048
▁confirmación	-10.505
▁Esc	-10.505
▁Ninguna	-10.505
▁Many	-10.5054
▁guardará	-10.5055
▁Entry	-10.5056
▁Restore	-10.5056
▁unread	-10.5057
▁German	-10.5059
▁estaba	-10.5059
▁contraseñas	-10.5071
20	-10.5074
▁asociado	-10.5092
by	-10.5093
15	-10.5094
ine	-10.5105
▁presentation	-10.5106
ive	-10.5106
▁Generic	-10.5115
ty	-10.5119
▁Fill	-10.512
▁Indique	-10.5124
▁Kontact	-10.5124
▁avoid	-10.5124
▁NFS	-10.5124
▁KWallet	-10.5126
▁Renombrar	-10.5127
▁Australia	-10.5127
▁añada	-10.5128
▁Okular	-10.5128
▁ISP	-10.5128
▁integer	-10.513
▁añadirá	-10.5132
▁classes	-10.5146
▁aparecen	-10.5161
▁Sa	-10.5162
▁represents	-10.5167
▁child	-10.5168
ke	-10.5168
▁Límite	-10.517
▁perc	-10.5173
▁abiertos	-10.5176
▁1)	-10.5179
▁Allows	-10.5181
▁Refresh	-10.5184
int	-10.5193
▁firmar	-10.5197
▁Changes	-10.5198
▁Every	-10.5202
▁While	-10.5202
▁mostrando	-10.5202
iraj	-10.5203
▁response	-10.5203
▁diagramas	-10.5204
▁Scan	-10.5206
▁ShortName	-10.5213
▁console	-10.5214
▁repeat	-10.5215
▁across	-10.5218
▁anti	-10.5222
miento	-10.5223
▁iniciado	-10.5224
▁bolas	-10.5236
▁borrado	-10.5238
▁Clave	-10.5249
▁personalizada	-10.525
▁rama	-10.5252
▁Query	-10.5263
▁Call	-10.5276
▁probar	-10.5277
▁Construct	-10.5279
ville	-10.528
CELE	-10.5281
▁gente	-10.5282
▁busy	-10.5284
italy	-10.5284
ue	-10.5287
ROM	-10.5289
▁Continue	-10.5292
free	-10.5296
▁depende	-10.5299
▁torrents	-10.5301
gar	-10.5309
▁recuperar	-10.5313
▁determina	-10.5313
▁dicho	-10.5322
rd	-10.5323
▁permission	-10.5331
30	-10.5337
▁600	-10.5339
▁projects	-10.5347
coming	-10.5349
▁XSL	-10.5358
▁saturación	-10.536
▁therefore	-10.536
▁peticiones	-10.536
▁padre	-10.5361
▁vuelva	-10.5361
▁LongName	-10.537
▁kapp	-10.5373
Please	-10.5375
▁tales	-10.5382
Color	-10.5383
▁Area	-10.5402
▁eu	-10.5404
▁esquina	-10.541
▁privada	-10.541
▁Client	-10.541
▁correspond	-10.5414
▁DE	-10.5417
▁developer	-10.5422
▁Post	-10.5422
▁1:	-10.5428
▁optional	-10.5429
▁us	-10.5435
▁internal	-10.5438
▁extraer	-10.5439
▁Puntuación	-10.544
▁cierta	-10.544
▁Referencia	-10.544
▁Enlace	-10.544
▁suitable	-10.5441
▁pasos	-10.5444
▁construcción	-10.5445
▁privilegios	-10.5448
▁green	-10.5448
ándose	-10.5453
▁sola	-10.5462
▁limited	-10.5467
▁imported	-10.5476
▁ones	-10.5484
▁plot	-10.549
▁telescope	-10.549
▁eso	-10.5493
▁role	-10.5495
▁32	-10.5495
▁midi	-10.5498
▁Mo	-10.55
▁filesystem	-10.5502
▁elige	-10.5504
▁Adjust	-10.5519
▁French	-10.5521
▁Povray	-10.5521
▁héroe	-10.5521
▁half	-10.5521
▁posee	-10.5521
▁Decrease	-10.5525
▁Widget	-10.5533
▁Ajustes	-10.554
▁calendarios	-10.555
▁delante	-10.5554
▁encontrará	-10.5573
▁think	-10.5573
▁notification	-10.5574
▁dir	-10.5579
▁sector	-10.5582
▁crash	-10.5592
▁Tecla	-10.5598
europa	-10.5602
▁Siempre	-10.5602
▁apertura	-10.5602
▁intérprete	-10.5602
▁Definir	-10.5603
▁Trash	-10.5603
▁vuelve	-10.5604
▁viewing	-10.5604
▁propietario	-10.5605
▁except	-10.5606
▁Engine	-10.5607
▁Cache	-10.5607
▁Cortar	-10.5608
▁Africa	-10.5609
ner	-10.5618
▁sources	-10.5621
▁processing	-10.5622
▁moverse	-10.5622
▁Rules	-10.5627
▁incluyen	-10.563
▁uri	-10.5638
14	-10.5641
▁Of	-10.5643
▁%5	-10.5647
▁corner	-10.5653
▁claro	-10.5655
▁combination	-10.5657
▁rutas	-10.5658
▁configurable	-10.566
▁interest	-10.566
▁Variable	-10.5661
▁join	-10.5666
▁fetch	-10.5667
▁Shortcut	-10.5672
▁hour	-10.5677
▁searching	-10.5679
▁cerca	-10.5681
▁Short	-10.5683
▁Stefan	-10.5684
▁storage	-10.5684
▁generación	-10.5685
▁Match	-10.5689
▁hostname	-10.5699
▁terminar	-10.5704
▁fully	-10.5709
side	-10.5719
▁conversion	-10.5722
lar	-10.5733
(12	-10.5735
▁Todo	-10.5737
▁hole	-10.5745
▁attachments	-10.575
▁lex	-10.5751
▁encuentre	-10.5751
▁señal	-10.5752
▁posterior	-10.5756
▁utilidad	-10.5758
▁charla	-10.5759
▁difícil	-10.576
subjects	-10.576
▁mount	-10.5763
▁Encrypt	-10.5764
▁1997	-10.5765
▁caption	-10.5767
▁everything	-10.5767
▁Aviso	-10.5767
▁kioslave	-10.5767
▁National	-10.5767
▁Así	-10.5771
▁shared	-10.5772
▁closing	-10.5772
▁rain	-10.5777
▁speech	-10.5777
▁saber	-10.578
with	-10.5785
odrá	-10.5786
▁cree	-10.5791
▁reducir	-10.5797
▁rest	-10.5805
▁ready	-10.5815
▁eur	-10.5818
-1	-10.5822
▁Directorio	-10.5823
005	-10.5829
▁circle	-10.583
▁Mu	-10.5831
▁subtitle	-10.5834
▁Devices	-10.5839
▁analizar	-10.584
Por	-10.584
▁calcular	-10.5842
▁restore	-10.5847
▁Kig	-10.5848
Sobrescribir	-10.585
▁Faure	-10.585
▁compartir	-10.585
▁inteligente	-10.585
▁reemplazo	-10.585
ltimo	-10.585
▁kscd	-10.585
▁Saving	-10.585
▁indentation	-10.5851
▁appearance	-10.5851
▁Minimum	-10.5852
▁Alinear	-10.5852
▁Soport	-10.5852
optic	-10.5852
▁vistazo	-10.5853
▁avanzadas	-10.5857
▁Resumen	-10.5857
▁meaning	-10.5861
▁anteriormente	-10.5861
▁Pulsar	-10.5863
▁90	-10.5866
Realmente	-10.5866
▁Pregunta	-10.5868
▁kmenu	-10.587
La	-10.587
▁Manage	-10.5872
▁solar	-10.5873
ial	-10.5878
▁Inicia	-10.5878
▁similares	-10.5894
▁diagram	-10.5897
▁adecuada	-10.5905
▁hit	-10.5906
▁hilo	-10.591
▁recta	-10.5912
▁Prueba	-10.5913
▁abierta	-10.5913
▁visibles	-10.5916
▁métodos	-10.592
▁years	-10.592
▁symbols	-10.5927
▁Reproductor	-10.5934
▁remitente	-10.5934
▁querer	-10.5936
▁Focus	-10.5939
▁Instalar	-10.594
▁mounted	-10.5941
▁Star	-10.5949
▁Andreas	-10.5953
Query	-10.5953
▁owner	-10.5955
4/	-10.5959
▁funcione	-10.596
waters	-10.5973
▁notes	-10.5987
▁exact	-10.5987
▁próxima	-10.5993
▁fotografía	-10.5994
▁separada	-10.5997
▁Ne	-10.6002
▁%3.	-10.6002
era	-10.6008
▁Header	-10.6009
▁Multi	-10.6012
▁Arriba	-10.6019
▁Centro	-10.6019
▁Spanish	-10.6019
▁kdeinit	-10.6019
▁particiones	-10.6019
▁Nicolas	-10.6019
▁IPSec	-10.6019
▁Central	-10.6019
▁kprinter	-10.602
▁Campo	-10.602
▁Quality	-10.6021
▁finalización	-10.6021
▁aceptar	-10.6021
▁kernel	-10.6022
▁Username	-10.6023
Compilation	-10.6024
▁ipsec	-10.6024
▁conflictos	-10.6026
▁gdb	-10.6027
▁canceled	-10.6031
▁nice	-10.6032
▁presented	-10.6048
▁larger	-10.6048
▁balls	-10.6069
▁pro	-10.6073
▁eje	-10.6074
▁trata	-10.6075
▁phrase	-10.6079
▁recordatorio	-10.608
▁Pulsa	-10.6091
▁60	-10.6092
▁64	-10.6093
List	-10.6097
Ethiopia	-10.6099
▁asunto	-10.6104
▁FITS	-10.6106
▁Idioma	-10.6107
▁External	-10.6108
▁hero	-10.6112
▁reached	-10.6112
▁none	-10.6114
port	-10.6114
nother	-10.6116
▁Unicode	-10.6119
▁ve	-10.6122
▁esperaba	-10.6125
▁Gran	-10.6135
cm	-10.6149
▁Applet	-10.6155
▁Kir	-10.616
▁permiso	-10.6168
▁defaults	-10.618
▁contenga	-10.618
▁títulos	-10.6181
▁Mac	-10.6185
▁patch	-10.6186
▁Incluir	-10.6191
▁Writing	-10.6191
▁journal	-10.6191
▁kompare	-10.6191
▁paleta	-10.6191
▁saturation	-10.6191
▁Azul	-10.6192
▁Comenzar	-10.6192
▁VPN	-10.6194
▁complex	-10.6196
▁ladrillos	-10.6198
1,	-10.62
▁listbox	-10.62
▁Aumentar	-10.62
▁Aparecerá	-10.6202
▁statistics	-10.6203
▁gestionar	-10.6209
linux	-10.6211
▁highlighting	-10.6215
▁Form	-10.6216
▁ftp	-10.6225
▁Extra	-10.6229
izar	-10.6242
▁Element	-10.6244
GL	-10.6252
▁necesaria	-10.6253
▁teléfono	-10.6254
▁macro	-10.6258
▁scroll	-10.6262
▁Des	-10.6262
▁Templates	-10.6269
▁gpg	-10.6277
▁zone	-10.6278
▁freedb	-10.6278
▁currency	-10.6278
▁systemsettings	-10.6279
▁2:	-10.6279
▁Navigation	-10.628
▁recientemente	-10.628
▁Paso	-10.6281
▁MPEG	-10.6281
▁grises	-10.6282
▁notificación	-10.6283
▁OSD	-10.6285
▁marque	-10.6299
▁Fuer	-10.6303
▁holding	-10.6305
▁Region	-10.6308
▁intente	-10.6324
32	-10.6325
nrique	-10.6329
▁administración	-10.6329
▁era	-10.6334
ina	-10.6336
▁fuerte	-10.6343
▁fórmula	-10.6344
▁Ajuste	-10.6344
▁Bug	-10.6347
▁defines	-10.6349
▁Long	-10.6356
▁clientes	-10.6361
▁assign	-10.6364
▁unable	-10.6365
greece	-10.6365
▁Anterior	-10.6365
▁Sánchez	-10.6365
▁Richard	-10.6365
▁kaudiocreator	-10.6366
▁Subir	-10.6367
▁Saltar	-10.6371
▁indicates	-10.6373
▁completely	-10.6376
▁Hacer	-10.6385
Noun	-10.6389
copy	-10.6391
▁funcionar	-10.6396
vin	-10.6396
▁Pro	-10.6397
▁pictures	-10.6401
▁Fija	-10.6405
▁big	-10.6412
ut	-10.6415
▁Artist	-10.6415
▁caracter	-10.6416
ane	-10.6426
▁recientes	-10.6432
▁require	-10.6433
▁val	-10.6434
▁Selecting	-10.6436
▁Process	-10.6437
▁lugares	-10.6441
▁Specifie	-10.6442
▁pass	-10.6443
▁Sheet	-10.6443
ger	-10.6445
▁masa	-10.6448
ized	-10.6449
▁Attach	-10.645
▁Found	-10.6453
▁khangman	-10.6454
▁Bandeja	-10.6454
▁profundidad	-10.6454
▁Items	-10.6454
▁Encryption	-10.6455
▁Job	-10.6455
▁Sincronizar	-10.6455
▁Medium	-10.6457
▁Where	-10.646
▁SMS	-10.646
style	-10.646
▁Parser	-10.6461
▁FAQ	-10.6461
▁SMTP	-10.6463
▁Reglas	-10.6467
▁filled	-10.6468
▁Tu	-10.6474
path	-10.6474
▁privileges	-10.6477
▁***	-10.648
▁Preguntas	-10.6481
oc	-10.6487
▁methods	-10.6493
▁force	-10.6505
del	-10.6517
▁película	-10.6522
▁Schedule	-10.6524
▁Escala	-10.6525
▁Build	-10.6527
▁reminder	-10.6528
▁Firma	-10.6529
16	-10.6538
▁correos	-10.6542
▁instrucciones	-10.6543
▁Clipboard	-10.6543
▁dolphin	-10.6543
▁Krita	-10.6543
▁Sobre	-10.6543
▁debugger	-10.6543
▁KWord	-10.6543
▁Christian	-10.6543
▁Statusbar	-10.6544
▁adelante	-10.6544
▁greater	-10.6546
▁digikam	-10.6547
▁profiles	-10.6547
▁timeout	-10.6554
▁Yen	-10.6559
gmx	-10.6566
▁verbos	-10.6566
▁procesar	-10.6566
mer	-10.658
az	-10.6582
▁receive	-10.6587
▁(1)	-10.6592
▁Nick	-10.6596
▁manejar	-10.6599
adas	-10.66
▁Chang	-10.6605
▁sounds	-10.6606
des	-10.6606
▁dados	-10.6607
(1)	-10.6607
és	-10.6608
▁uk	-10.6612
▁medida	-10.6612
ran	-10.6616
▁desactivada	-10.6617
▁sabe	-10.6618
▁Slide	-10.6619
▁deshacer	-10.6622
▁looking	-10.6624
▁ortográfica	-10.6633
▁región	-10.6633
▁rueda	-10.6633
▁comience	-10.6633
▁Aplicación	-10.6635
▁Bernd	-10.6635
▁nick	-10.6636
▁exactly	-10.6636
▁sometimes	-10.6637
▁Mount	-10.6638
▁previamente	-10.6639
▁finalizado	-10.6641
▁Antes	-10.6642
▁Block	-10.6645
part	-10.6653
ppp	-10.6661
▁programación	-10.6666
ompilación	-10.6671
▁preferences	-10.6671
▁Sh	-10.6683
▁queue	-10.6684
▁pasa	-10.6687
▁utilizarse	-10.6693
▁asientos	-10.67
▁estrella	-10.6704
▁West	-10.6706
▁newsgroup	-10.6706
▁reply	-10.6706
▁bibliotecas	-10.671
▁Team	-10.6717
▁Repeat	-10.6721
▁calcula	-10.6723
▁González	-10.6724
▁handheld	-10.6724
▁helada	-10.6724
▁team	-10.6726
▁Skip	-10.6727
▁temperature	-10.6727
▁xsldbg	-10.6727
▁Gamma	-10.6727
▁presente	-10.6728
▁Paul	-10.6729
▁Week	-10.673
▁replacement	-10.6731
ru	-10.6731
▁Bajar	-10.6731
▁Computer	-10.6733
▁fit	-10.6734
5)	-10.6739
▁performed	-10.6739
▁controladores	-10.6742
▁Sale	-10.6743
can	-10.6746
Class	-10.675
Image	-10.675
▁Variables	-10.6754
▁Widgets	-10.6756
▁Tags	-10.676
▁Intent	-10.6764
▁mime	-10.6767
true	-10.6767
▁necesarios	-10.6772
▁di	-10.678
▁transport	-10.678
▁'%1'	-10.6781
▁sites	-10.6784
▁detener	-10.6795
▁operativo	-10.6798
▁Jugador	-10.6807
▁escape	-10.6812
▁utilizada	-10.6813
▁extensions	-10.6815
▁XMP	-10.6816
▁Resolución	-10.6816
▁identify	-10.6816
department	-10.6816
▁Konsole	-10.6816
▁Método	-10.6816
▁apariencia	-10.6816
▁iPod	-10.6816
▁klipper	-10.6816
▁pablo	-10.6816
▁Duración	-10.6816
▁preferred	-10.6817
ero	-10.6817
▁kaddressbook	-10.6818
▁minimum	-10.6818
▁desconectado	-10.6818
▁respecto	-10.6818
▁Kopete	-10.6821
▁'%2'	-10.6821
▁verticalmente	-10.6823
▁expected	-10.6825
▁Generate	-10.6827
50	-10.683
which	-10.6843
button	-10.6843
▁pequeños	-10.6844
▁opcional	-10.6845
▁Diagram	-10.6852
▁predeterminadas	-10.686
▁series	-10.6861
▁ejecutará	-10.6862
▁init	-10.6868
▁dpi	-10.687
ever	-10.6873
▁Checking	-10.6874
▁Vi	-10.6875
▁Matt	-10.6881
▁grabar	-10.6884
▁conflict	-10.6886
▁Notes	-10.6888
check	-10.6888
ria	-10.689
▁consists	-10.6891
▁encontrada	-10.6891
▁Predeterminado	-10.6896
▁cuidado	-10.6899
▁revision	-10.69
▁Pa	-10.6904
▁happens	-10.6904
▁warning	-10.6905
▁May	-10.6906
▁traza	-10.6907
▁Cantidad	-10.6908
▁Luego	-10.6908
▁alguien	-10.6908
▁skin	-10.6908
▁Great	-10.6908
▁Bloquear	-10.6909
▁Before	-10.6911
▁Two	-10.6912
▁Editing	-10.6912
▁mal	-10.6912
▁okular	-10.6912
▁energy	-10.6916
ura	-10.6916
▁depth	-10.6916
▁especialmente	-10.6918
▁aquellos	-10.6922
▁Lines	-10.6935
▁Real	-10.6935
http	-10.6936
▁Forma	-10.6946
▁areas	-10.6973
date	-10.6976
▁turno	-10.6977
▁llamar	-10.6982
▁Hace	-10.6985
▁binario	-10.6986
▁desarrollador	-10.6998
▁kalva	-10.7002
▁precisión	-10.7002
▁Tellico	-10.7002
▁basura	-10.7002
▁frente	-10.7002
▁interés	-10.7002
▁iCalendar	-10.7002
▁www	-10.7002
▁shutdown	-10.7006
▁powerful	-10.7006
01	-10.7011
▁formatting	-10.7011
▁mixed	-10.7012
▁Fonts	-10.7016
▁bricks	-10.7016
▁Green	-10.7017
▁Verde	-10.7026
▁Filename	-10.7029
▁prefer	-10.7039
▁*_	-10.7041
600	-10.7048
script	-10.7049
▁gas	-10.7058
▁Request	-10.7061
▁Super	-10.7066
▁2.	-10.708
▁brick	-10.7082
▁sizes	-10.7082
▁Ra	-10.7082
▁thumbnail	-10.7083
▁Queue	-10.7085
▁aleatorio	-10.7088
▁actividad	-10.7094
▁Adding	-10.7096
▁Encargado	-10.7096
▁GStreamer	-10.7096
▁cúbica	-10.7096
▁kalzium	-10.7096
▁Proxy	-10.7096
▁Corrección	-10.7096
▁división	-10.7096
▁bloques	-10.7097
▁kmousetool	-10.7097
▁Backup	-10.7097
▁kwrite	-10.7097
▁EPS	-10.7098
▁titlebar	-10.7098
▁ayudar	-10.7099
▁SVN	-10.7105
▁whose	-10.7106
ingún	-10.7111
▁had	-10.7114
▁Working	-10.7118
▁latest	-10.7129
▁Cristi	-10.7134
test	-10.7135
▁18	-10.7138
Text	-10.7143
▁Sur	-10.7145
▁byte	-10.7145
▁designed	-10.715
▁pressed	-10.7164
ados	-10.7166
▁ocurre	-10.7176
▁override	-10.7176
▁pieza	-10.7178
▁ficha	-10.7178
▁horaria	-10.7178
▁super	-10.7183
▁recent	-10.7184
▁updating	-10.7191
▁sRGB	-10.7193
24	-10.7196
▁Aspecto	-10.7198
▁passed	-10.7199
▁identifier	-10.7201
▁escoger	-10.7203
▁sitios	-10.7203
▁Internal	-10.7205
▁arco	-10.7206
86	-10.7207
uml	-10.721
str	-10.7214
ira	-10.7217
▁asociaciones	-10.7219
▁hilos	-10.722
▁Lake	-10.7224
▁Per	-10.7227
Line	-10.7227
▁Model	-10.7227
▁sum	-10.7228
▁dada	-10.723
In	-10.7235
▁200	-10.724
▁procesos	-10.7241
▁saltar	-10.7253
▁ejemplos	-10.7256
▁follows	-10.7257
new	-10.7269
▁aparezca	-10.7272
▁rectángulo	-10.7274
▁detect	-10.7274
▁foto	-10.7275
▁though	-10.7276
▁stylesheet	-10.7277
▁rellenar	-10.7284
▁comas	-10.7285
▁periodo	-10.7287
▁escena	-10.7287
akregator	-10.7287
▁Alexander	-10.7287
▁krdc	-10.7287
▁cierra	-10.7288
▁Implementación	-10.7288
▁introducción	-10.7288
▁Characters	-10.7289
▁identificación	-10.729
▁suite	-10.7294
▁convierte	-10.7296
▁Currently	-10.7302
▁steps	-10.7303
Part	-10.7308
▁indicador	-10.7309
▁Car	-10.7313
▁abiertas	-10.7316
This	-10.7319
2,	-10.7326
▁deja	-10.7335
ize	-10.7342
▁empezar	-10.7343
▁Field	-10.7347
▁40	-10.7349
▁locations	-10.7353
▁Marco	-10.7354
▁photograph	-10.7355
pl	-10.7357
▁Coordinates	-10.7358
▁say	-10.7359
▁downloading	-10.7364
▁permitido	-10.7372
▁término	-10.7373
▁Icons	-10.7376
▁Article	-10.7377
▁Etiquetas	-10.7377
▁recurrence	-10.7378
▁KPart	-10.7378
open	-10.7378
fa	-10.7384
▁KAlarm	-10.7385
▁LPD	-10.7385
▁Robles	-10.7385
▁KGet	-10.7385
▁Kipi	-10.7386
▁Alternatively	-10.7386
▁horario	-10.7386
▁Italy	-10.7388
▁ninguno	-10.7389
▁Graph	-10.739
▁Hint	-10.7392
▁far	-10.7396
▁considered	-10.7396
▁1200	-10.7396
▁especially	-10.7398
▁pdf	-10.7401
▁filtrar	-10.7402
▁max	-10.7402
▁máquinas	-10.7404
▁vea	-10.7416
▁pública	-10.7417
Key	-10.7417
▁Parámetros	-10.7428
▁Feed	-10.7431
▁Ko	-10.7437
server	-10.7438
▁fijar	-10.7448
▁avanzados	-10.7448
▁Sign	-10.7449
▁instructions	-10.7449
atías	-10.7459
til	-10.7465
▁Tr	-10.747
▁Launch	-10.7471
▁añadido	-10.7472
▁conoce	-10.7473
▁Backend	-10.7476
pt	-10.7476
▁Quebec	-10.7483
▁condiciones	-10.7483
▁kbruch	-10.7483
▁kfloppy	-10.7483
▁klettres	-10.7483
▁ksnapshot	-10.7483
▁ocasiones	-10.7483
▁kdegames	-10.7483
▁Below	-10.7483
▁compruebe	-10.7483
▁asegurarse	-10.7484
▁Buscando	-10.7486
▁foreground	-10.7489
▁eliminará	-10.7491
▁Statistics	-10.7494
▁Inserta	-10.7498
▁SQL	-10.7498
▁dot	-10.7501
▁entero	-10.7501
▁álbumes	-10.7507
▁Mueve	-10.7507
▁sender	-10.7512
▁desktops	-10.7515
less	-10.7525
▁%1@	-10.7527
based	-10.7529
mark	-10.7537
25	-10.7538
yx	-10.7552
▁práctico	-10.7569
▁ésto	-10.7571
▁guía	-10.7571
▁encrypt	-10.7574
print	-10.7574
▁Enables	-10.7576
▁guide	-10.7579
prefectur	-10.7582
▁Welcome	-10.7582
▁colecciones	-10.7582
▁libraries	-10.7582
▁Navegador	-10.7582
▁Europa	-10.7582
▁rotación	-10.7582
▁Elemento	-10.7583
▁Library	-10.7585
▁DBus	-10.7588
▁KTTSD	-10.759
▁Package	-10.759
▁Spain	-10.7591
▁trash	-10.7593
▁piezas	-10.7596
▁Icono	-10.7597
▁consultar	-10.7599
ana	-10.7599
▁raw	-10.7601
▁ogg	-10.7601
▁Di	-10.7605
▁recipient	-10.7606
▁TeX	-10.7608
▁signed	-10.7609
▁Force	-10.7617
from	-10.7617
▁2006	-10.7624
▁disc	-10.7631
▁repetir	-10.7635
▁nl	-10.7636
▁Will	-10.7637
40	-10.7638
org	-10.7642
ará	-10.7651
Archivos	-10.7654
▁Ni	-10.7659
▁Marc	-10.7659
▁pieces	-10.7667
▁Korea	-10.767
day	-10.7672
▁ladrillo	-10.7673
▁thread	-10.7679
▁flags	-10.7679
ance	-10.768
▁Policy	-10.7682
▁turtle	-10.7682
▁bienvenida	-10.7682
▁scene	-10.7682
▁kabcclient	-10.7682
▁precisa	-10.7682
▁cinco	-10.7682
▁indique	-10.7682
▁lead	-10.7682
▁kcalc	-10.7682
▁Palm	-10.7683
▁Restart	-10.7684
▁Reply	-10.7685
▁recently	-10.7685
▁obtiene	-10.7685
▁Rehacer	-10.7685
▁";"	-10.7688
▁Ordenar	-10.7692
▁stay	-10.7692
▁autorización	-10.7693
▁sigue	-10.7696
▁Preferences	-10.7699
▁leading	-10.7699
▁expand	-10.7699
▁KSpread	-10.7701
▁consider	-10.7705
▁sugerencias	-10.771
remos	-10.7711
▁Latin	-10.7711
▁3,	-10.7713
gr	-10.7714
tic	-10.7738
▁firmado	-10.7739
▁act	-10.7747
ium	-10.7747
▁squares	-10.7749
▁nodos	-10.7751
▁seen	-10.7754
AR	-10.7755
▁understand	-10.7755
▁corresponde	-10.7756
▁resulting	-10.7757
▁restaurar	-10.7761
▁route	-10.7765
ect	-10.7766
▁cm	-10.7768
▁Russia	-10.7773
▁avanzada	-10.7775
▁situado	-10.7777
▁enables	-10.7777
▁guardada	-10.7778
▁Anders	-10.7782
▁Desconocido	-10.7783
▁mueva	-10.7783
▁revisión	-10.7783
▁Jabber	-10.7783
▁Identity	-10.7783
▁Imágenes	-10.7785
▁Abajo	-10.7785
▁Never	-10.7786
▁Oct	-10.7787
▁Certificado	-10.7788
▁escriba	-10.7789
▁Desactivar	-10.7789
▁prompted	-10.7792
▁face	-10.7792
▁ordenación	-10.7794
▁determinada	-10.7795
▁references	-10.7805
▁core	-10.7811
▁listado	-10.7811
▁SMB	-10.7813
mar	-10.7814
▁personalizados	-10.7814
▁Primero	-10.7816
▁útiles	-10.7817
▁Ar	-10.782
▁Reading	-10.7828
▁compiled	-10.7833
▁1.1	-10.7836
▁connecting	-10.7845
▁filtering	-10.785
▁forms	-10.785
▁límites	-10.785
▁finish	-10.7852
clicking	-10.7853
▁búsquedas	-10.7868
▁Albert	-10.7872
▁aleatoria	-10.7875
▁ésta	-10.7876
▁undo	-10.7876
▁saver	-10.7876
▁signal	-10.7884
▁styles	-10.7884
▁Entonces	-10.7885
▁Jonathan	-10.7885
▁kformula	-10.7885
▁relleno	-10.7885
shire	-10.7885
▁Actualización	-10.7885
▁Jason	-10.7885
▁Entorno	-10.7886
▁Getting	-10.7886
▁British	-10.7886
▁overview	-10.7887
▁conflicto	-10.7889
▁Online	-10.7889
▁Tabla	-10.7889
▁rotation	-10.7891
▁someone	-10.7892
▁outside	-10.7893
▁older	-10.7896
▁Restaurar	-10.7903
▁Pages	-10.7911
Object	-10.7922
der	-10.7923
▁wide	-10.7931
▁reporte	-10.7933
una	-10.7943
▁flechas	-10.7946
▁foo	-10.7962
▁reporting	-10.7963
▁clients	-10.7964
▁Pausa	-10.7974
▁Cualquier	-10.7975
▁indicate	-10.7978
▁Module	-10.7981
▁visit	-10.7981
▁Fuente	-10.7982
▁mostrado	-10.7982
▁layer	-10.7983
▁configurada	-10.7983
▁Plantilla	-10.7985
ern	-10.7985
▁Row	-10.7987
vietnam	-10.7988
▁nuestro	-10.7988
▁teclee	-10.7988
▁Autenticación	-10.7988
▁kmouth	-10.7989
▁modificación	-10.7989
▁casi	-10.799
▁ext	-10.799
▁talker	-10.7992
▁edu	-10.7993
▁válidos	-10.7993
▁horizontalmente	-10.7994
▁soportado	-10.7995
▁getting	-10.7997
▁wheel	-10.7998
▁faster	-10.7999
▁(0	-10.8
▁Chart	-10.8001
zzle	-10.8004
▁controles	-10.8004
▁Virtual	-10.8006
▁2,	-10.8008
60	-10.8012
▁cara	-10.8012
▁Leer	-10.8014
▁marks	-10.8014
cron	-10.802
format	-10.8021
▁contained	-10.8025
▁Graphics	-10.8025
Show	-10.8027
▁Activate	-10.8028
▁motores	-10.803
▁digits	-10.8033
▁Intro	-10.8036
bin	-10.8037
▁Component	-10.8066
▁doc	-10.8075
▁retrieve	-10.808
▁temperatura	-10.8085
▁numérico	-10.8087
▁carátula	-10.8087
▁examples	-10.8087
▁preferencia	-10.8088
▁successful	-10.8089
▁Europe	-10.8091
▁Aug	-10.8092
▁Destination	-10.8092
▁preliminar	-10.8092
▁Tobias	-10.8092
▁Aaron	-10.8092
opios	-10.8092
▁Guide	-10.8092
▁Busy	-10.8094
▁Calendario	-10.8096
▁Section	-10.8096
▁attached	-10.8097
▁Delay	-10.8097
▁Makefile	-10.8097
▁solicitado	-10.8097
▁material	-10.81
▁Mayúsculas	-10.8101
▁términos	-10.8105
▁Lund	-10.8107
▁propias	-10.8111
▁turned	-10.8115
▁fotografías	-10.8122
pro	-10.8123
▁tomar	-10.8137
au	-10.814
▁intentará	-10.8141
▁Questions	-10.816
table	-10.8161
▁sh	-10.8165
▁%3)	-10.8165
▁PS	-10.8168
▁[0	-10.8171
rt	-10.8178
base	-10.8186
▁rc	-10.8186
▁duplicate	-10.8187
3)	-10.8187
▁pick	-10.8188
▁paths	-10.8188
:3	-10.8191
▁difficult	-10.8191
▁pérdida	-10.8193
▁Servicio	-10.8193
▁Categoría	-10.8193
▁kill	-10.8194
▁detail	-10.8194
ate	-10.8197
▁Behavior	-10.8197
▁Brightness	-10.8197
▁applies	-10.8197
▁Ghostscript	-10.8197
▁OCR	-10.8198
▁habrá	-10.8198
▁ampliación	-10.8198
▁animación	-10.8198
▁relativa	-10.8199
▁parche	-10.8199
kyri	-10.8199
▁curve	-10.82
▁fj	-10.82
▁Attribute	-10.82
▁Order	-10.8201
▁Observe	-10.8201
▁constante	-10.8202
▁buffer	-10.8202
▁procesado	-10.8204
▁separador	-10.8205
▁spam	-10.8205
▁trace	-10.8208
▁unchecked	-10.8208
republic	-10.8213
▁Border	-10.8213
▁planet	-10.8215
▁Simon	-10.8217
▁inversa	-10.8226
▁falso	-10.8226
▁19	-10.8226
▁upon	-10.8231
du	-10.8231
start	-10.8239
▁personales	-10.824
iva	-10.8243
▁playlists	-10.8243
▁toma	-10.8249
▁Phone	-10.8268
▁hosts	-10.827
▁publicar	-10.8273
▁1440	-10.8273
▁increase	-10.8289
▁Borde	-10.8291
▁fix	-10.8294
▁»).	-10.8295
▁tabulador	-10.8295
▁guess	-10.8296
▁Watch	-10.8297
ol	-10.8301
▁vida	-10.8302
ure	-10.8303
▁Bastian	-10.8304
▁Burton	-10.8304
▁Pfeiffer	-10.8304
▁espere	-10.8304
▁Falta	-10.8304
▁comparación	-10.8305
▁Operación	-10.8305
▁Year	-10.8305
▁solamente	-10.8306
▁trabajando	-10.8306
▁angular	-10.8309
▁KVpnc	-10.831
▁artista	-10.8312
▁parser	-10.8315
▁Dec	-10.8318
▁Programa	-10.8326
▁mapas	-10.8329
pos	-10.8341
puerto	-10.8345
▁Li	-10.8349
▁Debug	-10.8351
▁fine	-10.8355
ai	-10.8363
▁terms	-10.8363
Indian	-10.8365
▁mis	-10.8378
▁ten	-10.8379
▁normales	-10.8391
aciones	-10.8393
▁updates	-10.84
▁Dispositivos	-10.8402
▁Dibuja	-10.8404
Speech	-10.8405
ster	-10.8406
▁Allen	-10.8406
▁codificador	-10.8411
▁practice	-10.8411
▁Fog	-10.8411
▁kvpnc	-10.8412
▁Repository	-10.8412
▁predefined	-10.8412
▁Duplicate	-10.8412
▁SSH	-10.8413
▁Documentación	-10.8414
▁Compact	-10.8414
▁100%	-10.8415
▁Personalizar	-10.8415
▁rendered	-10.8417
▁Character	-10.8418
▁Designer	-10.842
▁cave	-10.8422
▁31	-10.8428
▁wrap	-10.8431
You	-10.844
▁Ian	-10.8442
▁Alto	-10.8447
▁clicked	-10.8448
ment	-10.845
▁sensor	-10.8466
▁Otros	-10.8469
▁decidir	-10.8473
▁caer	-10.848
lit	-10.85
▁necesite	-10.8504
group	-10.8504
tal	-10.8507
▁Contrast	-10.8508
1;	-10.851
▁sintetizador	-10.8511
▁East	-10.8512
▁Contents	-10.8513
▁paneles	-10.8514
▁tablas	-10.8514
▁externa	-10.8515
▁cd	-10.8515
estión	-10.8518
▁PowerDevil	-10.852
▁leyendo	-10.852
▁reproduciendo	-10.852
▁retardo	-10.852
▁Dynamic	-10.852
▁ambas	-10.852
▁Sitio	-10.852
▁Traducción	-10.852
▁Curve	-10.852
▁Debian	-10.852
▁Waldo	-10.8521
▁Redimensionar	-10.8521
▁places	-10.8522
▁Circle	-10.8522
▁rectangle	-10.8523
▁Derecha	-10.8523
▁Finish	-10.8524
▁Detail	-10.8526
▁composer	-10.8527
▁Marca	-10.8527
▁today	-10.8529
▁Cell	-10.8531
▁skip	-10.8533
▁Recargar	-10.8534
▁Luna	-10.8536
▁almost	-10.8536
▁esperar	-10.8536
▁axis	-10.8541
▁Continuar	-10.8542
▁zip	-10.8544
▁notifications	-10.8557
▁17	-10.8561
▁hue	-10.8565
▁runs	-10.8573
▁switching	-10.8574
▁adds	-10.8576
▁Core	-10.8588
▁watch	-10.8588
El	-10.8591
▁Tim	-10.8595
▁usados	-10.8598
▁falta	-10.86
▁solve	-10.8604
▁esos	-10.8613
▁alternative	-10.8626
▁suave	-10.8627
▁breve	-10.8628
▁máscara	-10.8629
▁Asunto	-10.863
▁Comportamiento	-10.863
▁Estadísticas	-10.863
▁Repetir	-10.863
▁kivio	-10.863
▁navigation	-10.863
▁produjo	-10.863
▁radius	-10.863
▁Target	-10.863
▁TIFF	-10.863
▁confirmation	-10.863
▁Possible	-10.8631
▁préstamo	-10.8632
▁alter	-10.8634
ot	-10.8636
kdemail	-10.8637
▁Verificar	-10.8639
▁wav	-10.8645
▁kbps	-10.8646
▁países	-10.8646
▁funcionalidades	-10.8649
▁Ogg	-10.8655
options	-10.8655
ización	-10.8657
▁Importing	-10.866
▁responder	-10.8675
=...	-10.8685
▁recibir	-10.8686
▁Moves	-10.8687
this	-10.8687
▁antiguos	-10.8691
▁Longitud	-10.8691
▁necesitar	-10.8692
chi	-10.87
▁aparecerán	-10.87
▁wo	-10.8712
▁divide	-10.872
▁Ancho	-10.8727
book	-10.8729
▁facet	-10.8737
▁mezcla	-10.8741
▁Hoelzer	-10.8741
▁Viñal	-10.8741
▁posiciones	-10.8741
▁accent	-10.8741
▁activity	-10.8741
▁Website	-10.8741
▁utilizados	-10.8741
▁Seigo	-10.8742
▁publicación	-10.8742
▁Gille	-10.8743
▁Johannes	-10.8743
▁statement	-10.8743
▁Removing	-10.8744
▁applicable	-10.8745
▁tense	-10.8746
▁Detect	-10.8747
▁Rotar	-10.8748
▁correction	-10.8749
▁mbrola	-10.875
ces	-10.8751
▁horizontally	-10.8753
▁Driver	-10.8757
▁256	-10.8759
▁PO	-10.876
▁»?	-10.8766
▁macros	-10.8769
▁tile	-10.8771
▁Cid	-10.8773
▁redimensionar	-10.8775
arley	-10.8782
▁Mensajes	-10.8782
▁Christoph	-10.8782
Screen	-10.8788
▁pie	-10.8798
▁causes	-10.8831
US	-10.8832
RY	-10.8834
▁separados	-10.8838
360	-10.8841
ez	-10.8843
▁Carga	-10.8845
▁entidad	-10.8845
▁destinatarios	-10.8846
ker	-10.8846
illa	-10.8852
▁Expresión	-10.8853
▁Disposición	-10.8853
▁Impresión	-10.8853
▁Colección	-10.8853
▁externas	-10.8853
▁Balance	-10.8853
▁debugging	-10.8853
▁Moving	-10.8853
▁Categories	-10.8854
▁kiten	-10.8854
▁Biblioteca	-10.8854
▁Ampliar	-10.8855
▁asociación	-10.8855
▁Letter	-10.8856
▁Accept	-10.8856
▁Security	-10.8856
▁anyway	-10.8856
▁Entries	-10.8857
▁kget	-10.8858
▁tamaños	-10.8858
▁pila	-10.8858
debian	-10.8859
▁limitado	-10.8861
▁condición	-10.8861
▁Notification	-10.8864
quite	-10.8865
▁accessible	-10.8865
▁fotos	-10.8868
▁histograma	-10.8871
▁Private	-10.8875
▁slot	-10.8876
India	-10.8878
▁Volumen	-10.8883
▁áreas	-10.8888
▁agente	-10.8888
su	-10.8894
level	-10.8898
▁Actual	-10.8898
▁Documents	-10.8899
Error	-10.8901
Page	-10.8903
▁Conmuta	-10.8905
+01	-10.8908
▁180	-10.8921
dpi	-10.8922
▁closes	-10.8922
;...)	-10.8927
qt	-10.8928
▁informar	-10.893
▁stand	-10.894
▁happen	-10.8947
string	-10.8949
▁explorar	-10.8954
▁Pan	-10.8955
▁probable	-10.8965
▁descargas	-10.8966
▁Papel	-10.8967
▁Función	-10.8967
▁cyrus	-10.8967
▁fuerza	-10.8967
▁Calidad	-10.8967
▁Astals	-10.8967
▁thus	-10.8967
▁Jump	-10.8967
▁Running	-10.8967
▁Invertir	-10.8968
▁matter	-10.8968
▁ensure	-10.8968
▁five	-10.8969
hould	-10.8969
▁Method	-10.8969
▁comparison	-10.8969
▁translator	-10.897
▁corto	-10.8971
▁recibido	-10.8971
▁negative	-10.8972
▁representación	-10.8973
▁resultante	-10.8974
▁Generar	-10.8977
▁Informe	-10.8982
▁vertically	-10.8982
▁Gradient	-10.8985
▁faceta	-10.8987
▁Structure	-10.8989
▁office	-10.899
▁pasado	-10.8992
▁virtuales	-10.8998
▁ignorar	-10.8998
▁Gu	-10.8999
▁Chi	-10.9001
▁Ba	-10.9004
ling	-10.9008
▁positions	-10.9008
screen	-10.9015
▁matched	-10.9016
▁Cliente	-10.9017
▁titles	-10.9028
▁Jan	-10.9032
00]	-10.9035
▁corta	-10.9039
▁win	-10.904
▁Power	-10.9042
▁ms	-10.9043
▁layouts	-10.9048
▁Verify	-10.9065
▁Lu	-10.9067
▁Oculta	-10.9068
ientras	-10.907
ish	-10.9071
▁discard	-10.9075
▁Confirm	-10.9078
zerbaijan	-10.9081
▁Esquema	-10.9082
▁GPG	-10.9082
▁README	-10.9082
▁vencimiento	-10.9082
▁Sebastian	-10.9082
▁Card	-10.9083
▁canciones	-10.9083
▁entrenamiento	-10.9083
▁GPS	-10.9083
▁Solid	-10.9083
▁Progress	-10.9084
▁him	-10.9085
▁pixmap	-10.9085
▁Bajo	-10.9086
▁Izquierda	-10.9087
▁Bienvenido	-10.9088
▁palette	-10.9088
▁distinto	-10.9088
String	-10.9089
▁montaje	-10.9089
▁thing	-10.9089
ph	-10.909
▁secure	-10.9091
▁intended	-10.9096
▁license	-10.9096
▁costes	-10.9098
▁iniciará	-10.9101
▁mini	-10.9103
ant	-10.9112
▁coordinate	-10.9113
▁mejorar	-10.9117
▁copying	-10.9119
urkey	-10.9122
▁calls	-10.9123
add	-10.9127
▁22	-10.9131
▁iguales	-10.9132
▁ejes	-10.9132
▁reales	-10.9132
ear	-10.9133
▁msg	-10.9134
fi	-10.9144
▁registros	-10.9148
▁proporcionan	-10.9152
▁Busca	-10.9152
▁Disco	-10.9154
EN	-10.9161
▁Initial	-10.9167
▁cu	-10.9167
▁4.	-10.9169
▁speak	-10.9171
▁gráficas	-10.9173
meter	-10.9175
we	-10.9181
▁entrar	-10.9185
▁habitual	-10.9188
▁Notifications	-10.9194
▁Conectar	-10.9195
▁1999	-10.9197
zambia	-10.9198
▁Tormenta	-10.9198
▁razón	-10.9198
▁satisface	-10.9198
Puedo	-10.9198
▁Kulow	-10.9198
▁Stick	-10.9198
▁declaración	-10.9198
▁weekday	-10.9198
▁modificaciones	-10.9199
▁suelo	-10.9199
▁volverá	-10.9199
▁taskbar	-10.92
▁tmp	-10.92
▁kword	-10.9201
▁ayudarle	-10.9201
▁Cover	-10.9202
▁trust	-10.9202
▁Norte	-10.9203
▁Clase	-10.9204
▁encabezado	-10.9205
▁asociada	-10.9205
▁Completion	-10.9205
▁destinatario	-10.9206
▁instancia	-10.9208
▁Scheme	-10.921
▁master	-10.9213
▁---	-10.9215
▁Content	-10.9216
▁binarios	-10.9218
▁Santa	-10.9218
▁Month	-10.9218
▁conflicts	-10.9219
▁Length	-10.9219
▁Carpetas	-10.9221
▁col	-10.9224
▁Valores	-10.9225
▁rich	-10.9228
▁soon	-10.9231
▁mask	-10.9232
▁offer	-10.9232
▁Opening	-10.9239
▁deseada	-10.924
▁Old	-10.9241
load	-10.9242
▁Objects	-10.9243
▁ends	-10.9244
▁28	-10.9248
▁numeric	-10.9248
▁autores	-10.9251
▁3.	-10.9254
▁Drop	-10.9256
lbum	-10.9257
▁resulta	-10.9259
cc	-10.9263
▁edited	-10.9266
9660	-10.927
▁Used	-10.9273
▁subcarpetas	-10.9294
▁Solar	-10.9299
▁finalizar	-10.9305
▁Líneas	-10.9307
▁popular	-10.9307
▁Perfil	-10.9307
▁seems	-10.9307
▁Invert	-10.9315
▁DVB	-10.9316
▁Dollar	-10.9316
▁Heavy	-10.9316
▁OpenOffice	-10.9316
▁Usually	-10.9316
▁polígono	-10.9316
▁Single	-10.9316
▁Historial	-10.9316
▁Gestionar	-10.9316
▁performance	-10.9316
▁Kong	-10.9316
ray	-10.9317
▁Raw	-10.9317
▁verify	-10.9317
▁Signature	-10.9318
▁subversion	-10.9318
▁Descargando	-10.9318
▁Moon	-10.9318
▁Vorbis	-10.9318
▁identificar	-10.9319
▁xsl	-10.932
▁Camera	-10.9321
%3	-10.9322
▁breakpoint	-10.9324
▁Ruby	-10.9325
▁alguno	-10.9325
▁Thumbnail	-10.9326
▁recoger	-10.9328
▁patterns	-10.9329
▁cross	-10.933
▁Normally	-10.9331
▁Franco	-10.9331
▁Phonon	-10.9332
▁rendering	-10.9332
▁Hard	-10.9333
();	-10.9337
ko	-10.9337
▁sorting	-10.9342
▁Highlighting	-10.9343
▁filenames	-10.9345
▁incremental	-10.9347
▁km	-10.9348
▁Contacts	-10.9357
ice	-10.9358
Linux	-10.9369
QString	-10.937
▁processes	-10.938
▁Tom	-10.9381
▁básicas	-10.939
right	-10.939
▁NO	-10.9391
▁Obten	-10.9391
▁Count	-10.9401
Alt	-10.9404
most	-10.9406
▁Sending	-10.9409
▁caiga	-10.942
▁constant	-10.942
▁passwords	-10.9423
▁resume	-10.9424
▁Creado	-10.9425
▁Accounts	-10.9427
▁Exit	-10.9429
▁Store	-10.9434
atalonia	-10.9435
▁Columbia	-10.9435
▁restricción	-10.9435
▁Osuna	-10.9435
▁kmplayer	-10.9435
▁invitaciones	-10.9435
▁Navegación	-10.9435
▁handbook	-10.9435
▁GDB	-10.9435
▁dropping	-10.9435
▁Partida	-10.9436
▁implementación	-10.9436
▁Caulier	-10.9436
▁RSS	-10.9437
▁Append	-10.9437
▁exactamente	-10.9437
▁establecido	-10.9437
▁Extensión	-10.9437
▁ICC	-10.9438
▁tries	-10.9438
▁Simplemente	-10.9438
▁Angle	-10.9438
▁framework	-10.9439
▁Unidad	-10.944
▁spreadsheet	-10.9443
▁refresh	-10.9445
▁Root	-10.9445
▁múltiple	-10.9446
▁newly	-10.9447
▁proveedores	-10.9452
▁thumbnails	-10.9453
▁goal	-10.9454
zo	-10.9454
ano	-10.9455
iz	-10.9457
▁mezclador	-10.9462
▁Artista	-10.9466
▁occur	-10.9466
▁separadas	-10.9469
▁proporcionado	-10.9473
▁CCD	-10.9474
▁loan	-10.9482
point	-10.9488
false	-10.949
Dialog	-10.949
gue	-10.9492
ún	-10.9497
▁Min	-10.9501
▁GPL	-10.9508
▁dark	-10.9509
▁building	-10.9512
▁(%2	-10.9514
▁codec	-10.9515
▁Points	-10.9517
▁Mass	-10.9521
▁usual	-10.9522
▁MM	-10.9527
▁ajustes	-10.9533
▁CC	-10.9534
▁Qué	-10.9539
▁choices	-10.9543
▁maintain	-10.9543
▁moment	-10.9544
▁gusta	-10.9546
▁operador	-10.9547
▁detectar	-10.9548
▁appname	-10.9549
▁remain	-10.955
▁afecta	-10.9553
▁Caracteres	-10.9555
▁Respuesta	-10.9555
▁logged	-10.9555
▁presione	-10.9555
▁Dividir	-10.9555
▁Complete	-10.9556
▁CMake	-10.9556
▁Español	-10.9556
▁ejecutándose	-10.9556
▁Scroll	-10.9558
▁Philip	-10.9558
▁protected	-10.9559
▁Development	-10.956
omarques	-10.956
▁flash	-10.956
▁Fast	-10.9561
▁render	-10.9561
▁Amount	-10.9561
▁disquete	-10.9563
ps	-10.9563
▁great	-10.9563
▁Domain	-10.9563
▁salvo	-10.9564
▁life	-10.9564
▁char	-10.9565
▁soportados	-10.9565
▁lilo	-10.9566
All	-10.9567
▁básico	-10.9567
▁payment	-10.9567
▁Consejo	-10.957
▁remaining	-10.9572
▁Supported	-10.9574
▁Applications	-10.958
▁calculated	-10.9582
▁1000	-10.9583
ary	-10.9585
▁representan	-10.9587
▁Po	-10.9594
▁guardarlo	-10.9596
ita	-10.9597
▁Te	-10.96
▁origin	-10.9604
▁aware	-10.9606
devel	-10.9606
pre	-10.9608
▁asistentes	-10.9609
▁extract	-10.9614
▁drivers	-10.9615
▁Effect	-10.9616
▁deje	-10.9623
▁becomes	-10.9626
▁arrancar	-10.9645
▁float	-10.9647
▁OR	-10.965
▁seem	-10.9651
▁cp	-10.9651
ab	-10.9656
▁independiente	-10.966
▁arc	-10.966
ward	-10.9665
▁Vídeo	-10.9677
▁Wuebben	-10.9677
▁cuánto	-10.9677
▁diversos	-10.9677
▁mínima	-10.9677
▁obstante	-10.9677
▁opponent	-10.9677
▁schema	-10.9677
▁kanagram	-10.9677
▁Tutorial	-10.9677
▁distribuciones	-10.9677
▁kdat	-10.9677
▁why	-10.9677
▁lento	-10.9678
▁Antonio	-10.9678
▁pseudo	-10.9679
ula	-10.9682
▁extended	-10.9682
▁Cifrar	-10.9683
▁Leave	-10.9683
▁Extensiones	-10.9683
▁futuro	-10.9689
▁eléctrica	-10.9689
▁agujero	-10.969
▁coincidan	-10.969
▁mostrada	-10.969
▁Ejecuta	-10.969
▁asignado	-10.9692
▁sensitive	-10.9693
▁databases	-10.9697
▁realizado	-10.9698
▁3.4	-10.9706
▁comenzará	-10.9706
▁familiar	-10.971
▁Notas	-10.9715
▁permit	-10.9718
ful	-10.9725
▁genera	-10.9729
rived	-10.9734
▁goes	-10.9738
▁modifications	-10.9739
link	-10.9746
▁ocultos	-10.9747
▁Valid	-10.9754
▁Sand	-10.9755
▁calendars	-10.9762
"/	-10.9765
▁subfolders	-10.9768
▁commit	-10.977
ju	-10.9792
▁funcionará	-10.9793
▁hacen	-10.9793
ica	-10.9796
▁circular	-10.9797
▁Inglés	-10.9801
▁Board	-10.9801
▁KDM	-10.9801
▁Varios	-10.9801
▁Why	-10.9802
▁synthesizer	-10.9802
▁resaltada	-10.9803
▁Follow	-10.9804
▁absolute	-10.9808
▁percent	-10.9808
▁Fax	-10.9809
▁rotate	-10.9811
▁apropiado	-10.9813
▁moverá	-10.9814
▁bandera	-10.9815
▁Alberta	-10.9817
▁actualizaciones	-10.9817
▁movie	-10.9818
▁Bu	-10.982
▁integrado	-10.982
▁redes	-10.9822
▁Groups	-10.9824
▁Expression	-10.9824
▁hoyo	-10.9828
▁Country	-10.9828
▁utilizadas	-10.983
▁sería	-10.9833
▁completar	-10.9833
▁locale	-10.9834
▁tex	-10.9835
▁ocultas	-10.9835
▁128	-10.9835
▁adapt	-10.9835
▁artist	-10.9843
ifique	-10.9847
▁recordará	-10.9847
View	-10.9854
▁signing	-10.9854
doc	-10.986
0000	-10.9864
▁provider	-10.9866
ack	-10.9869
▁coincidir	-10.987
▁Selects	-10.9871
▁cut	-10.9872
han	-10.9876
▁dial	-10.9881
ese	-10.9882
=0	-10.9887
▁3.2	-10.9898
ical	-10.99
▁sec	-10.9901
Do	-10.9914
▁collect	-10.9918
▁separado	-10.9922
▁referencias	-10.9923
▁Hue	-10.9923
COMMAND	-10.9926
primary	-10.9926
▁batería	-10.9926
▁kttsmgr	-10.9926
▁niebla	-10.9926
▁pronto	-10.9926
▁Desplazamiento	-10.9926
▁paréntesis	-10.9926
Quique	-10.9927
▁Smart	-10.9928
▁responsable	-10.9929
▁statusbar	-10.993
▁False	-10.9931
▁typically	-10.9936
▁conocido	-10.9942
▁detalle	-10.9943
▁encontraron	-10.9945
edro	-10.9951
ltima	-10.9952
▁cita	-10.9955
▁excepto	-10.9958
▁AC	-10.996
▁Bytes	-10.9969
▁sonidos	-10.998
▁Downloading	-10.9982
▁grab	-10.9983
specific	-10.9987
▁específicos	-10.9991
▁locally	-10.9994
▁habilitar	-10.9995
ell	-11
3,	-11.0002
▁Blog	-11.0004
▁AT	-11.0007
red	-11.001
rate	-11.0014
1)	-11.0022
▁pantallas	-11.0022
▁denomina	-11.0028
64	-11.0029
▁construct	-11.0033
▁bab	-11.0041
▁solicitud	-11.0044
▁mean	-11.0045
▁Cost	-11.0051
▁natural	-11.0052
▁KNode	-11.0052
▁capabilities	-11.0052
▁luminosidad	-11.0052
▁vacaciones	-11.0052
▁Probablemente	-11.0052
▁stopped	-11.0052
▁Memoria	-11.0052
ngulo	-11.0052
▁Arabic	-11.0052
▁ruido	-11.0053
▁Menubar	-11.0057
▁Authors	-11.0059
▁Medio	-11.0059
ide	-11.0063
▁commonly	-11.0063
▁threads	-11.0064
▁formatted	-11.0065
▁fotogramas	-11.0066
▁posibilidades	-11.0069
RE	-11.007
▁pair	-11.0071
▁Score	-11.0072
▁50%	-11.0073
▁newsgroups	-11.0078
▁indicada	-11.0078
▁Bay	-11.0078
▁city	-11.008
▁Roman	-11.0082
▁Keys	-11.0086
▁nuevamente	-11.0091
amente	-11.0094
▁borders	-11.0097
rabe	-11.0097
▁reemplazará	-11.01
▁Sus	-11.0101
▁dis	-11.0103
▁segura	-11.0104
dcop	-11.0106
ió	-11.0108
▁definidas	-11.011
▁pausa	-11.0111
▁plan	-11.0136
rg	-11.0141
▁Asocia	-11.0144
▁typed	-11.0154
▁visualizar	-11.0165
▁serial	-11.0166
▁equivalent	-11.0167
▁Themes	-11.0169
▁hexadecimal	-11.0172
specifique	-11.0176
▁gradient	-11.0178
hailand	-11.0178
▁Dólar	-11.018
▁Filtrar	-11.018
▁Reduce	-11.018
▁Vocabulary	-11.018
▁joystick	-11.018
▁kguitar	-11.018
▁proceed	-11.018
▁MainDlg	-11.018
▁ahí	-11.018
▁Dirk	-11.0182
▁deleting	-11.0182
▁offset	-11.0183
▁trap	-11.0184
▁usarlo	-11.0185
▁Listas	-11.0185
▁triggered	-11.0187
▁Lower	-11.0189
▁Examples	-11.0191
▁self	-11.0191
▁recipients	-11.0193
▁Elementos	-11.0195
▁keywords	-11.0198
▁Picture	-11.0199
▁Attachment	-11.02
ante	-11.02
▁Island	-11.0201
▁indicator	-11.0201
▁remotos	-11.0201
▁miniatura	-11.0202
▁Period	-11.0205
hand	-11.0206
▁operator	-11.0206
▁container	-11.0225
ley	-11.0228
▁Ja	-11.0237
search	-11.0241
auto	-11.0244
Widget	-11.0244
filter	-11.0245
Day	-11.0246
▁Mis	-11.0252
▁predefinidas	-11.0257
▁subir	-11.0257
▁Scripts	-11.0268
▁Alta	-11.0274
▁Filtros	-11.0275
▁Property	-11.0293
▁pertenece	-11.0295
▁borra	-11.0303
▁definidos	-11.0304
▁Uno	-11.031
▁Apariencia	-11.031
▁Daemon	-11.031
▁Deleting	-11.031
▁Feature	-11.031
▁Gantt	-11.031
▁aprendizaje	-11.031
▁killbots	-11.031
▁Prioridad	-11.031
▁programming	-11.031
▁Chance	-11.031
▁seguido	-11.031
spain	-11.031
▁physical	-11.0311
▁Ocurri	-11.0311
▁apartado	-11.0311
▁mantenga	-11.0311
▁spin	-11.0312
▁Depth	-11.0313
▁George	-11.0314
▁representation	-11.0314
▁Storage	-11.0314
▁broken	-11.0316
▁pause	-11.0316
▁kleopatra	-11.0316
ization	-11.032
▁instances	-11.0321
▁notice	-11.0325
▁plasma	-11.0327
▁principales	-11.033
▁situada	-11.033
▁pago	-11.0332
▁cookie	-11.0332
▁carta	-11.0333
▁elig	-11.0333
▁fraction	-11.0335
▁jump	-11.0338
▁Modem	-11.0339
▁Quits	-11.0343
▁copias	-11.0349
▁indent	-11.0353
▁colored	-11.0354
▁conditions	-11.0355
▁sincronizar	-11.0357
▁400	-11.0357
ts	-11.0369
▁diseñado	-11.0371
100	-11.0374
▁tips	-11.0374
Type	-11.0375
▁Events	-11.038
▁transporte	-11.0381
sha	-11.0382
▁Son	-11.0382
▁experiment	-11.0383
▁Especificar	-11.0385
▁0.1	-11.0387
▁br	-11.0388
my	-11.0389
▁compartidos	-11.04
seconds	-11.0402
▁Starts	-11.0404
▁coloca	-11.0409
▁escaleras	-11.0415
br	-11.0428
▁descifrar	-11.0432
▁care	-11.0433
▁capacidad	-11.0434
42	-11.0435
▁pulgadas	-11.0435
rio	-11.0436
▁predefinidos	-11.0437
▁perder	-11.044
▁parse	-11.0441
▁Alaska	-11.0442
▁KGpg	-11.0442
▁kfilereplace	-11.0442
▁kubrick	-11.0442
▁lecture	-11.0442
▁snapshot	-11.0442
▁reproduce	-11.0442
▁ronda	-11.0442
▁viento	-11.0442
▁stack	-11.0442
▁comunicación	-11.0442
▁Miscellaneous	-11.0442
▁dará	-11.0442
▁QIF	-11.0442
▁XVideo	-11.0443
▁Mailbox	-11.0443
▁Edge	-11.0443
▁Escritorio	-11.0444
▁Asignar	-11.0448
▁Copying	-11.0448
▁canvas	-11.0449
▁inactivo	-11.0452
▁planeta	-11.0455
▁XSLT	-11.0456
▁agua	-11.0458
ni	-11.0464
▁bold	-11.0465
▁cuanto	-11.0465
defined	-11.0466
▁guarde	-11.0467
▁Pi	-11.0467
▁sorted	-11.0473
▁kcm	-11.0473
▁equivalente	-11.0476
ip	-11.0476
▁pequeñas	-11.0479
client	-11.0481
▁localmente	-11.0486
▁readable	-11.0487
MO	-11.0493
▁vacías	-11.0495
▁learning	-11.0504
▁Tips	-11.0504
▁verdadero	-11.0505
nombre	-11.0508
UTF	-11.0509
▁exec	-11.0512
▁Rate	-11.0515
▁feeds	-11.0522
fic	-11.0533
▁got	-11.0539
▁Final	-11.0539
▁hoy	-11.0549
▁planetas	-11.0554
▁preguntar	-11.0555
▁Fetch	-11.0558
ix	-11.0558
ible	-11.0559
▁convenient	-11.0563
▁assume	-11.0564
▁Commands	-11.0564
▁Eric	-11.0566
light	-11.0569
▁aplican	-11.0569
▁Du	-11.0571
osibilidad	-11.0573
▁Distancia	-11.0575
▁behind	-11.0575
▁escribe	-11.0575
▁kgeography	-11.0575
▁positive	-11.0575
▁tortuga	-11.0575
▁decrease	-11.0575
▁identical	-11.0575
▁Atrás	-11.0575
▁Guión	-11.0575
▁había	-11.0575
▁externos	-11.0576
▁Lauren	-11.0577
▁tried	-11.0578
▁passphrase	-11.0578
▁configuring	-11.058
▁enviará	-11.0582
▁generation	-11.0582
tiene	-11.0583
▁Shell	-11.0586
▁loop	-11.0587
▁instrucción	-11.059
▁empotrado	-11.0599
▁subcarpeta	-11.0601
▁mayúscula	-11.0601
▁instalada	-11.0601
▁antigua	-11.0604
▁cuales	-11.0606
▁kio	-11.0606
▁Perl	-11.0611
▁Coordenadas	-11.0615
▁sample	-11.0617
▁consist	-11.062
▁nodes	-11.0628
code	-11.0629
▁Columna	-11.0633
▁relacionadas	-11.0636
burg	-11.0639
input	-11.0645
look	-11.0646
left	-11.0647
▁entornos	-11.0651
▁usadas	-11.0652
ua	-11.0656
▁Tras	-11.066
cio	-11.0663
▁0.	-11.0666
▁Existe	-11.067
▁solapas	-11.0675
▁Functions	-11.0675
▁testing	-11.0677
▁Alarms	-11.07
ific	-11.07
▁Provide	-11.0701
▁suffix	-11.0703
zimbabwe	-11.071
Kluepfel	-11.071
▁Máquina	-11.071
▁Máximo	-11.071
▁Orientation	-11.071
▁Política	-11.071
▁Rodrigues	-11.071
▁Thunderstorm	-11.071
▁constellation	-11.071
▁dinámico	-11.071
▁granizo	-11.071
▁lokalize	-11.071
▁Radius	-11.071
▁Saturation	-11.071
▁spent	-11.071
▁countries	-11.0711
▁Skrooge	-11.0711
▁authorization	-11.0711
▁lea	-11.0711
▁Denmark	-11.0712
▁administrar	-11.0712
▁orientación	-11.0713
▁specification	-11.0714
▁KiB	-11.0714
▁cuál	-11.0715
▁CMYK	-11.0716
▁Plain	-11.0716
▁Priority	-11.0716
▁Cube	-11.0717
▁Año	-11.0717
▁Plantillas	-11.0718
▁trusted	-11.0718
▁aplicará	-11.0719
▁Finished	-11.0719
▁totalmente	-11.0722
▁locked	-11.0724
▁Bi	-11.0727
▁safe	-11.0731
▁contengan	-11.0734
▁exception	-11.0737
▁ability	-11.0741
▁fórmulas	-11.0744
▁muestren	-11.0744
▁incorrecto	-11.0744
▁Disabled	-11.0746
▁fijo	-11.0747
▁ch	-11.0749
▁Dark	-11.075
▁descargado	-11.0752
▁Config	-11.0753
▁exacta	-11.0754
iga	-11.0762
iza	-11.0768
▁te	-11.0773
▁experience	-11.0781
▁Puntos	-11.0782
▁direct	-11.0794
▁mismos	-11.0795
ron	-11.0807
▁verbs	-11.0808
▁Profiles	-11.0809
▁token	-11.0811
mply	-11.0817
off	-11.0824
▁histogram	-11.0826
isión	-11.0826
▁relevant	-11.0831
21	-11.0837
▁distintos	-11.084
▁apodos	-11.0841
val	-11.0842
▁Off	-11.0846
ric	-11.0847
▁Encontrar	-11.0847
▁Guinea	-11.0847
▁bruto	-11.0847
▁constelaciones	-11.0847
▁orientation	-11.0847
▁Meyer	-11.0847
▁Greek	-11.0847
▁Sometimes	-11.0847
▁flexible	-11.0848
▁Fort	-11.0848
▁Escribir	-11.0848
▁Peso	-11.0848
▁horizonte	-11.0848
▁Contiene	-11.0849
▁Subversion	-11.0849
wol	-11.0849
▁permanently	-11.0849
▁Ejemplos	-11.085
▁fact	-11.085
▁XDMCP	-11.0851
▁Calcular	-11.0853
▁measure	-11.0853
▁average	-11.0853
▁Multimedia	-11.0853
▁viene	-11.0854
▁inter	-11.0855
▁tinta	-11.0856
▁Flip	-11.0859
host	-11.0864
▁Iconos	-11.0866
▁trigger	-11.0868
▁sale	-11.087
▁Abra	-11.0871
size	-11.0871
▁algoritmo	-11.0873
▁potente	-11.0874
▁mismas	-11.0874
▁catálogo	-11.0874
▁peer	-11.0875
▁Valida	-11.0877
▁Sino	-11.0878
▁meses	-11.0879
▁cosa	-11.0881
▁Reader	-11.0882
get	-11.0884
ving	-11.0885
▁belong	-11.0885
▁seleccionará	-11.0887
▁emoticonos	-11.089
izado	-11.0891
▁compare	-11.0894
▁explica	-11.0896
▁tu	-11.0897
ny	-11.0897
age	-11.0899
▁Ve	-11.0899
▁personalizadas	-11.0901
▁copies	-11.0904
▁secret	-11.0908
hu	-11.091
▁Defaults	-11.0912
▁touch	-11.0915
verdadero	-11.092
wide	-11.0922
▁plus	-11.0923
▁Primar	-11.0926
web	-11.0928
▁4,	-11.0945
url	-11.0947
▁representar	-11.0955
▁23	-11.0964
26	-11.0964
▁activará	-11.0969
▁significado	-11.0972
rdenes	-11.0977
users	-11.0977
▁polygon	-11.0983
reg	-11.0984
LIBRA	-11.0986
▁Funciones	-11.0986
▁Koenig	-11.0986
▁Molkentin	-11.0986
▁Pamela	-11.0986
▁Syntax	-11.0986
▁major	-11.0986
▁Easy	-11.0986
▁Buffer	-11.0986
▁swap	-11.0986
▁Plus	-11.0986
▁vCard	-11.0986
▁Jansen	-11.0986
▁Responder	-11.0987
▁frecuentemente	-11.0987
▁jpg	-11.0987
▁detection	-11.0987
▁Eugene	-11.0988
▁respectively	-11.0989
▁Unread	-11.0989
▁Confirmar	-11.0989
▁Finally	-11.099
▁sense	-11.0991
▁parches	-11.0991
▁aborted	-11.0991
▁1998	-11.0991
▁Visit	-11.0992
▁bz	-11.0992
mu	-11.0993
▁Startup	-11.0994
▁Calculate	-11.0994
▁logging	-11.0994
▁divided	-11.1002
90	-11.1003
▁alpha	-11.1007
▁inactive	-11.1008
▁centered	-11.1013
▁aviso	-11.1016
▁animation	-11.1017
▁PID	-11.1024
▁1.2	-11.1028
▁uncheck	-11.1029
▁allí	-11.1029
▁listing	-11.1034
▁ordenar	-11.1038
▁KB	-11.1039
▁fi	-11.1048
▁reach	-11.1048
72	-11.1053
▁marcos	-11.1055
▁Customize	-11.106
pública	-11.1061
▁UI	-11.1061
▁Hi	-11.1062
▁ayudará	-11.1063
ff	-11.1064
▁consiste	-11.1072
▁Mapa	-11.1089
▁helps	-11.1092
▁activos	-11.1092
▁consultas	-11.1095
▁Periodo	-11.1102
▁roll	-11.1104
Group	-11.1106
bi	-11.111
▁occurs	-11.1114
form	-11.1115
▁discos	-11.1119
▁Disconnect	-11.1126
▁Flash	-11.1127
▁Akregator	-11.1127
▁Sorry	-11.1127
▁accesibilidad	-11.1127
▁prefiere	-11.1127
▁divisa	-11.1127
▁cargue	-11.1127
▁detección	-11.1127
▁bitrate	-11.1128
fghanistan	-11.1128
▁Edición	-11.1128
▁Forzar	-11.1129
▁frequency	-11.1129
ES	-11.113
▁bash	-11.113
▁checkout	-11.1132
▁Large	-11.1133
romania	-11.1133
▁Break	-11.1134
▁buscando	-11.1135
▁editando	-11.1135
▁negrita	-11.1139
▁arrastrando	-11.1139
▁habilitado	-11.1141
▁anywhere	-11.1145
texto	-11.1154
▁patches	-11.1154
▁sentence	-11.116
▁backward	-11.116
▁exported	-11.1165
▁frecuentes	-11.117
▁eliminado	-11.1178
▁cúbicos	-11.1183
▁Complementos	-11.1194
▁fija	-11.1194
▁producir	-11.1196
▁funcionan	-11.1197
▁proc	-11.1199
▁corregir	-11.12
field	-11.1204
▁asking	-11.1207
22	-11.1211
▁potencia	-11.1211
▁Tabs	-11.1212
▁quotes	-11.1218
▁attendees	-11.1219
ring	-11.1222
▁mucha	-11.1225
▁Playing	-11.1228
▁reports	-11.1239
ven	-11.124
encia	-11.1243
▁Capital	-11.1243
▁guardados	-11.1246
▁Expandi	-11.1249
cia	-11.1258
san	-11.1259
▁Due	-11.1261
▁Mb	-11.1262
▁bars	-11.1263
providing	-11.127
▁Frecuencia	-11.127
▁Would	-11.127
▁rsibreak	-11.127
▁Facebook	-11.127
▁Although	-11.127
▁Schumacher	-11.127
▁respectivamente	-11.127
▁simultáneamente	-11.127
▁seguimiento	-11.127
▁Trounev	-11.1271
▁GMT	-11.1271
▁observación	-11.1271
▁Personalizado	-11.1272
▁supplied	-11.1273
▁Nunca	-11.1273
▁SCSI	-11.1274
▁Administrador	-11.1275
▁comparar	-11.1276
▁obtendrá	-11.1276
▁cancelada	-11.1276
▁generic	-11.1278
▁Configurando	-11.1278
▁Estonia	-11.1278
▁mostrados	-11.1278
▁Direct	-11.1282
▁BOOL	-11.1283
▁gz	-11.1283
▁Jones	-11.1283
▁esas	-11.1284
▁formularios	-11.1285
▁imap	-11.129
▁tiempos	-11.129
ServerAdmin	-11.1291
▁lotes	-11.1299
75	-11.1299
▁tercera	-11.1301
▁Impresora	-11.1303
▁DOS	-11.1308
▁encoder	-11.1311
▁bas	-11.1314
▁purpose	-11.1317
▁Assign	-11.1326
ín	-11.1334
mode	-11.1337
▁80	-11.1342
▁Operations	-11.1343
▁kb	-11.1347
message	-11.1349
▁Tri	-11.135
ente	-11.1353
den	-11.1353
IN	-11.1358
▁accessed	-11.1358
▁Adds	-11.1359
▁casillas	-11.1363
ini	-11.1365
▁separar	-11.1365
▁0)	-11.1367
▁buen	-11.138
▁usarse	-11.1384
▁almacenan	-11.1384
▁acaba	-11.1389
▁Record	-11.1392
▁xdm	-11.1396
ash	-11.1396
▁coincida	-11.14
▁Defin	-11.1402
▁Even	-11.1402
▁Join	-11.1403
▁reflect	-11.1407
▁mid	-11.1411
▁ciudad	-11.1412
▁clean	-11.1414
indonesia	-11.1415
▁Keith	-11.1415
▁continúa	-11.1415
▁kpovmodeler	-11.1415
▁traducciones	-11.1415
▁Deshabilita	-11.1415
▁Imprime	-11.1415
▁kept	-11.1415
▁lanzamiento	-11.1415
▁Hidden	-11.1415
▁Rojo	-11.1416
▁cmake	-11.1416
▁miniaplicación	-11.1416
▁calculator	-11.1416
▁simulation	-11.1418
▁Pilot	-11.142
▁Unix	-11.142
▁habilitada	-11.1421
▁citado	-11.1423
▁simulación	-11.1424
▁Suspend	-11.1424
▁Creando	-11.1426
▁represented	-11.1431
▁converted	-11.1437
▁directa	-11.144
dot	-11.1448
▁solved	-11.145
▁comp	-11.1453
▁avanzar	-11.1457
▁accesible	-11.146
▁sobrescribir	-11.1461
▁tratar	-11.1467
cal	-11.147
▁Protocolo	-11.147
▁reported	-11.1475
▁capital	-11.1477
▁arts	-11.1479
▁provocar	-11.1481
▁Da	-11.1483
top	-11.1491
root	-11.1491
▁3.5	-11.1491
separated	-11.1496
frica	-11.1496
720	-11.15
▁intervalos	-11.1504
▁dialogs	-11.1518
▁Mes	-11.152
▁pit	-11.1526
sub	-11.1528
▁!	-11.153
▁explain	-11.1537
▁tooltips	-11.1551
ud	-11.1552
▁searches	-11.1553
▁Wrap	-11.1562
▁Partition	-11.1562
▁Average	-11.1562
▁Cornelius	-11.1562
▁Krishna	-11.1562
▁Lluvia	-11.1562
▁Puzzle	-11.1562
▁Translation	-11.1562
▁legible	-11.1562
▁Naber	-11.1562
▁River	-11.1562
▁Danny	-11.1562
▁MPPE	-11.1562
▁treat	-11.1562
▁children	-11.1562
▁Sidebar	-11.1562
▁push	-11.1563
▁fallida	-11.1563
▁Nickname	-11.1563
▁Fusionar	-11.1564
▁Canal	-11.1564
▁limpiar	-11.1565
▁Presione	-11.1565
▁mbox	-11.1565
▁locate	-11.1567
▁localizar	-11.1568
▁Iniciando	-11.1569
rbol	-11.1572
▁Waiting	-11.1573
▁Spelling	-11.1575
▁Ready	-11.1584
▁Ch	-11.1588
▁puesto	-11.1588
▁Bell	-11.1589
▁sufficient	-11.159
▁environments	-11.1591
CD	-11.1597
▁Par	-11.1598
▁applets	-11.1599
▁alternativo	-11.1599
▁complejo	-11.16
▁plataforma	-11.16
▁subfolder	-11.1602
▁Over	-11.1605
▁párrafo	-11.1606
▁Symbol	-11.1608
▁segmento	-11.1608
indent	-11.1609
▁figure	-11.161
▁apunta	-11.1612
▁voice	-11.1617
play	-11.1618
▁Second	-11.162
▁preset	-11.1627
▁reasons	-11.1638
Value	-11.1645
Time	-11.1655
▁renombrar	-11.1664
▁Mah	-11.1666
▁Big	-11.1667
▁Plot	-11.1672
▁instaladas	-11.1684
▁Tracks	-11.1691
▁dibujará	-11.1691
▁vacíos	-11.1695
▁1024	-11.1698
▁capture	-11.17
▁8-	-11.1706
▁Buzón	-11.1711
▁Kalzium	-11.1711
▁Profundidad	-11.1711
▁nuestra	-11.1711
▁possibility	-11.1711
▁Requirements	-11.1711
▁kgpg	-11.1711
▁situación	-11.1711
▁dirigir	-11.1711
▁supply	-11.1711
▁Transferencia	-11.1711
▁VDR	-11.1711
▁Wallet	-11.1712
▁Aplicaciones	-11.1712
▁Brillo	-11.1712
▁Republic	-11.1712
▁spinbox	-11.1712
▁kverbos	-11.1712
▁RFC	-11.1712
▁traducir	-11.1712
▁homepage	-11.1712
▁surface	-11.1712
▁Mixer	-11.1712
▁Bold	-11.1713
▁Actualmente	-11.1714
▁Montel	-11.1714
▁Blanco	-11.1714
▁ark	-11.1714
▁dimensiones	-11.1714
▁Delta	-11.1715
▁shares	-11.1715
▁among	-11.1716
▁localización	-11.1716
▁disconnect	-11.1719
▁Four	-11.172
▁shift	-11.1721
▁PCI	-11.1723
▁idle	-11.173
▁Cor	-11.173
▁restored	-11.1732
osuna	-11.1738
▁Inv	-11.1738
tas	-11.1739
▁Ga	-11.1739
▁(%3)	-11.1744
▁editable	-11.1746
▁subsystem	-11.1752
▁soportan	-11.1752
▁Coordinate	-11.1753
▁Reverse	-11.1755
▁detectado	-11.1755
▁ajusta	-11.1758
▁(2)	-11.1758
▁archived	-11.176
▁gradiente	-11.1764
icon	-11.1766
▁queda	-11.1772
▁resultar	-11.1779
▁ships	-11.1781
▁amigos	-11.1782
Mail	-11.1783
▁enviados	-11.1787
▁0.0	-11.1788
▁Correct	-11.1788
Co	-11.1789
▁Digital	-11.179
Print	-11.1792
opcional	-11.1797
▁termine	-11.1802
▁partitions	-11.1803
tivo	-11.1806
▁Genera	-11.1815
▁Ta	-11.182
▁BD	-11.1822
mime	-11.1827
▁II	-11.1828
▁llevar	-11.1829
-2	-11.1833
▁combinar	-11.1834
▁scripting	-11.1834
ones	-11.1834
▁Named	-11.1834
▁po	-11.1835
▁Com	-11.1841
cho	-11.1842
450	-11.1845
▁conocer	-11.1854
▁contenedor	-11.1856
▁transparent	-11.1858
▁diagonal	-11.1859
ithuania	-11.186
▁Atom	-11.1861
▁Chris	-11.1862
unicipalities	-11.1863
▁Advertencia	-11.1863
▁DocBook	-11.1863
▁Enviando	-11.1863
▁Porcentaje	-11.1863
▁Saskatchewan	-11.1863
▁Tarjeta	-11.1863
▁executing	-11.1863
▁imposible	-11.1863
▁kplato	-11.1863
▁policies	-11.1863
▁restricciones	-11.1863
▁retraso	-11.1863
▁Joliet	-11.1863
▁Sample	-11.1863
▁Hardware	-11.1863
▁superusuario	-11.1863
▁armies	-11.1863
▁producido	-11.1863
▁formateo	-11.1863
▁cuándo	-11.1863
▁suelte	-11.1864
▁sirve	-11.1865
▁Esperando	-11.1865
▁montar	-11.1865
▁desmontar	-11.1865
▁introducida	-11.1865
▁introduciendo	-11.1865
▁sobrescribirlo	-11.1866
▁interior	-11.1866
used	-11.1866
teniendo	-11.1868
▁scaling	-11.1869
▁necesidades	-11.1869
▁Under	-11.187
▁VNC	-11.187
▁highest	-11.1872
▁SO	-11.1875
sign	-11.1875
▁integral	-11.1877
▁burning	-11.1879
▁**	-11.1883
▁Misc	-11.1884
▁fracción	-11.1884
page	-11.1889
▁bindings	-11.1892
▁inch	-11.1894
▁Jobs	-11.1899
!)	-11.19
▁Searching	-11.19
▁forget	-11.1903
▁2.2	-11.1904
▁conduit	-11.1904
OS	-11.1905
▁propósito	-11.1905
▁acepta	-11.1906
▁Talker	-11.1906
▁transparencia	-11.1907
▁horizontales	-11.1908
▁Types	-11.1909
▁relacionados	-11.1915
▁alternativa	-11.1921
tag	-11.1921
▁Componente	-11.1922
ndice	-11.1928
Si	-11.1934
source	-11.194
▁esquemas	-11.1945
__	-11.1947
you	-11.1949
local	-11.1949
▁comma	-11.1951
▁buscará	-11.1951
Add	-11.1953
db	-11.1954
▁Van	-11.1955
▁Users	-11.1958
▁ejercicios	-11.196
▁ending	-11.1961
▁5;	-11.1962
▁dibuja	-11.1963
▁NT	-11.1966
PS	-11.1968
via	-11.1975
▁searched	-11.1981
▁presiona	-11.1985
bra	-11.2002
▁attach	-11.2009
▁respective	-11.2014
▁deseado	-11.2014
▁ligera	-11.2015
▁Benjamin	-11.2016
▁Which	-11.2016
▁criteria	-11.2016
▁kwordquiz	-11.2016
▁oponente	-11.2016
▁removing	-11.2016
▁scheduling	-11.2016
▁credit	-11.2017
▁camino	-11.2017
▁traffic	-11.2017
▁vCalendar	-11.2017
▁Navigator	-11.2017
▁Instead	-11.2017
▁Vaya	-11.2017
▁cabo	-11.2018
▁controlled	-11.2018
▁verb	-11.2025
▁WBS	-11.2026
▁finalizada	-11.2028
▁kvtml	-11.2028
▁pl	-11.2031
▁agrupar	-11.2033
▁ejércitos	-11.2033
editor	-11.2038
▁IPv	-11.2039
▁pone	-11.2046
▁aquellas	-11.2049
▁actualizado	-11.205
▁division	-11.2052
▁Determina	-11.2055
▁Gráfica	-11.206
▁negra	-11.2061
▁absoluta	-11.2062
▁Autores	-11.2062
▁situation	-11.2062
▁occurrence	-11.2062
exec	-11.2062
▁consejo	-11.2063
▁matemáticas	-11.2066
▁magnitude	-11.2072
▁Cabecera	-11.2073
▁Sum	-11.2074
▁bell	-11.2077
cl	-11.2078
▁dock	-11.208
▁transparente	-11.2083
▁waiting	-11.2084
ler	-11.2086
5;	-11.2094
▁mayores	-11.2094
▁Pega	-11.2101
width	-11.2102
▁NOT	-11.2108
▁simples	-11.211
▁limitar	-11.2112
ill	-11.2113
▁5.	-11.2118
▁Anti	-11.2118
▁Services	-11.2122
mega	-11.2123
iniaplicación	-11.2125
▁blocks	-11.2138
▁Bad	-11.2142
9)	-11.2145
▁códigos	-11.2146
=1	-11.2148
▁Columnas	-11.2149
▁Brad	-11.2149
▁Masa	-11.2157
ous	-11.2161
User	-11.2162
▁Speak	-11.2162
▁rectangular	-11.2164
▁KPlato	-11.2173
▁Figura	-11.2173
▁Magnatune	-11.2173
▁Mozilla	-11.2173
▁Origen	-11.2173
▁Steffen	-11.2173
▁Therefore	-11.2173
▁Weather	-11.2173
▁bucle	-11.2173
▁kalcul	-11.2173
▁receptor	-11.2173
▁relaciones	-11.2173
▁scope	-11.2173
▁túnel	-11.2173
▁«%1»	-11.2173
▁Console	-11.2173
▁Cuadro	-11.2173
▁Márquel	-11.2173
▁detrás	-11.2173
▁knotes	-11.2173
▁comillas	-11.2173
▁extracción	-11.2173
▁gain	-11.2173
▁Nieve	-11.2173
▁mecanismo	-11.2173
▁Office	-11.2173
▁contador	-11.2173
▁Tateneni	-11.2173
▁Middle	-11.2173
▁Saint	-11.2173
tera	-11.2174
▁Toscano	-11.2174
▁identification	-11.2175
acute	-11.2175
▁kdmrc	-11.2177
▁OSS	-11.2178
▁artistas	-11.2179
▁Common	-11.218
▁invoke	-11.2181
▁Indiana	-11.2181
▁implemented	-11.2182
▁implica	-11.2185
▁DEL	-11.2186
▁interested	-11.2186
tan	-11.2188
▁scores	-11.219
▁pulgada	-11.219
▁tonos	-11.2191
▁KParts	-11.2192
▁Degrees	-11.2193
▁alemán	-11.2193
▁Argumentos	-11.2193
▁conectados	-11.2196
▁head	-11.2196
▁funcionando	-11.2199
china	-11.22
▁usenet	-11.2202
▁recognized	-11.2203
▁indi	-11.2206
Se	-11.2207
▁timer	-11.2211
dependientemente	-11.2211
▁Mon	-11.2214
▁queries	-11.2214
▁confirm	-11.2219
▁Símbolo	-11.2221
▁pm	-11.2222
▁círculo	-11.2222
▁Mario	-11.2224
▁leav	-11.2226
▁Hoja	-11.2227
▁creada	-11.2227
ither	-11.2229
▁bus	-11.2231
▁member	-11.2233
▁Día	-11.2234
▁girar	-11.2236
▁Modelo	-11.2255
Data	-11.2258
▁29	-11.2264
backgammon	-11.2265
Default	-11.2266
General	-11.2266
Menu	-11.2266
▁identifica	-11.2272
▁admin	-11.2272
▁Results	-11.2281
japan	-11.2281
Base	-11.2285
▁albums	-11.2286
▁Lists	-11.2287
For	-11.2287
▁lenguajes	-11.2292
▁ladders	-11.2294
ping	-11.2294
▁dynamic	-11.2295
▁pagos	-11.2305
▁planificado	-11.2306
▁linear	-11.231
▁modifica	-11.2313
▁ven	-11.2319
▁Identidad	-11.2323
▁publish	-11.2325
▁compilado	-11.2325
tipo	-11.2325
▁tracking	-11.2327
▁Ad	-11.2329
▁llegar	-11.2331
colombia	-11.2331
kcachegrind	-11.2331
▁GNOME	-11.2331
▁kvoctrain	-11.2331
▁navigate	-11.2331
▁refiere	-11.2331
----------------	-11.2331
▁svg	-11.2332
▁márgenes	-11.2332
▁entity	-11.2332
▁uppercase	-11.2332
▁possibl	-11.2332
▁compatibilidad	-11.2332
▁motion	-11.2332
▁visto	-11.2332
▁preferido	-11.2333
▁Falso	-11.2333
▁Finalmente	-11.2334
▁Avanzar	-11.2335
▁Share	-11.2337
▁especifique	-11.2337
▁scanner	-11.2338
▁Dictionary	-11.2339
▁detallado	-11.2342
▁WPA	-11.2343
▁permitirle	-11.2343
▁familia	-11.2343
▁matar	-11.2343
▁expanded	-11.2345
▁incidence	-11.2345
▁weight	-11.235
45	-11.2353
▁(%1).	-11.2354
▁echo	-11.2358
▁pinch	-11.2362
▁Tal	-11.2363
▁won	-11.2368
▁Tan	-11.2374
▁segment	-11.2375
▁dañado	-11.2381
▁próximo	-11.2382
▁compartido	-11.2383
▁público	-11.2386
▁Thread	-11.2388
van	-11.2388
▁constraint	-11.2391
▁platform	-11.2392
▁textura	-11.2394
▁Contactos	-11.2395
▁PAP	-11.2399
▁Diagrama	-11.2399
are	-11.2405
rm	-11.241
dig	-11.2416
▁3)	-11.242
▁shapes	-11.2424
▁pesa	-11.2425
Style	-11.2427
ile	-11.2429
.509	-11.2436
▁Result	-11.2437
▁cambiarlo	-11.2438
▁estándares	-11.2439
▁Fit	-11.2445
▁textos	-11.2452
▁ever	-11.2453
▁Pass	-11.2455
Note	-11.2464
▁incorrect	-11.2478
▁improve	-11.2481
album	-11.2481
tab	-11.2481
ino	-11.2482
row	-11.2483
tica	-11.2485
▁gif	-11.2486
▁tty	-11.2492
▁2008-2009	-11.2493
▁Arrastre	-11.2493
▁Journal	-11.2493
▁KMobileTools	-11.2493
▁Orientación	-11.2493
▁circunferencia	-11.2493
▁concreto	-11.2493
▁kuickshow	-11.2493
▁maestro	-11.2493
▁ortografía	-11.2493
▁superficie	-11.2493
▁KDat	-11.2493
▁ubicaciones	-11.2493
▁Decrypt	-11.2493
▁pretende	-11.2493
▁UDP	-11.2493
▁últimos	-11.2493
▁peso	-11.2493
▁handling	-11.2494
▁implementation	-11.2494
▁upgrade	-11.2494
▁Rating	-11.2494
▁estuviera	-11.2494
lford	-11.2495
▁Deseleccionar	-11.2496
▁sufijo	-11.2496
▁whatever	-11.2496
▁fundamental	-11.2496
▁Rubik	-11.2497
▁cerrado	-11.2497
▁CDs	-11.2497
▁family	-11.2498
▁mixer	-11.2498
▁spoken	-11.2499
▁amor	-11.25
▁Scott	-11.25
▁Hold	-11.2501
Accessibility	-11.2502
▁Rows	-11.2502
▁solicita	-11.2504
▁texture	-11.2506
2006	-11.2508
▁Recordar	-11.2513
▁Sky	-11.2516
▁speaking	-11.2517
▁interactive	-11.252
▁Ho	-11.2523
▁Diagrams	-11.2523
▁Páginas	-11.2527
ert	-11.2528
▁gris	-11.2529
▁mind	-11.2529
▁organizar	-11.2541
▁cerrada	-11.2545
4)	-11.2545
▁miles	-11.2546
▁presenta	-11.2549
kraine	-11.255
▁wall	-11.2559
ay	-11.256
▁backgammon	-11.256
cd	-11.2562
▁hints	-11.2564
▁partidas	-11.2581
TP	-11.2589
change	-11.2592
xml	-11.2592
ruler	-11.2593
▁Parameters	-11.2595
▁sol	-11.26
▁desplazar	-11.26
▁hash	-11.2611
ui	-11.2612
iran	-11.2614
nexo	-11.2615
▁Abort	-11.2632
▁Playlists	-11.2633
▁("	-11.2633
▁Links	-11.2634
▁Lea	-11.2634
▁Has	-11.2635
▁burn	-11.2648
AT	-11.2651
)@	-11.2653
▁proper	-11.2654
▁KTTS	-11.2655
▁Revert	-11.2656
▁Chinese	-11.2657
▁Collapse	-11.2657
▁Definition	-11.2657
▁Distance	-11.2657
▁Retardo	-11.2657
▁SmugMug	-11.2657
▁llovizna	-11.2657
▁lyrics	-11.2657
▁precision	-11.2657
▁Moore	-11.2657
▁alcance	-11.2657
▁resizing	-11.2657
fr	-11.2657
▁Binary	-11.2657
▁KTorrent	-11.2657
▁Presentación	-11.2657
▁parsing	-11.2657
south	-11.2657
▁Maxima	-11.2657
▁VCD	-11.2658
▁kmag	-11.2659
▁alcanzado	-11.2659
▁google	-11.2659
▁Fixed	-11.266
▁PCF	-11.2661
▁Micro	-11.2663
▁regardless	-11.2663
▁Adjuntar	-11.2663
▁mathematical	-11.2666
▁Values	-11.2669
▁MD	-11.2669
▁procesador	-11.267
▁encoded	-11.267
▁vi	-11.2671
▁Tar	-11.2672
▁Views	-11.2675
▁unmount	-11.2679
▁actualiza	-11.2682
ls	-11.2683
▁Bin	-11.2686
Un	-11.2689
300	-11.2689
▁localhost	-11.2699
▁Synchronize	-11.2704
area	-11.271
▁geográfica	-11.2712
▁catalog	-11.2712
▁descanso	-11.2713
▁Trabajo	-11.2713
▁larga	-11.2713
▁instruction	-11.2714
india	-11.2714
▁authors	-11.2717
▁asigna	-11.272
lib	-11.2729
var	-11.2729
▁tables	-11.2738
▁Simula	-11.2741
image	-11.2744
4-	-11.2745
ms	-11.2746
39	-11.2749
▁recording	-11.2751
puede	-11.2758
▁codificar	-11.2759
home	-11.2762
▁Tasks	-11.2764
▁Roberts	-11.2764
fs	-11.2765
▁songs	-11.2768
▁Node	-11.2769
▁Col	-11.2771
▁st	-11.2774
LE	-11.2776
way	-11.2778
ej	-11.2779
ual	-11.2779
▁boolean	-11.2788
▁configura	-11.2789
▁conecta	-11.279
▁deba	-11.2799
▁payments	-11.2807
cos	-11.281
NO	-11.2813
▁vs	-11.2817
▁políticas	-11.2817
ramblitt	-11.2823
▁KsirK	-11.2823
▁Verdadero	-11.2823
▁ksystemlog	-11.2823
▁procedimiento	-11.2823
▁Activity	-11.2823
▁DMA	-11.2823
▁Trabaja	-11.2823
▁anotaciones	-11.2823
▁esfera	-11.2823
▁intercambio	-11.2823
▁Diseño	-11.2823
▁mitad	-11.2823
▁Grayscale	-11.2823
▁cuestión	-11.2824
▁Caption	-11.2824
▁Popup	-11.2824
▁Operaciones	-11.2824
▁explicitly	-11.2824
▁Conectado	-11.2824
▁Cifrado	-11.2824
▁interpretar	-11.2824
▁Caja	-11.2824
▁Words	-11.2825
▁Received	-11.2825
▁permanentemente	-11.2825
▁terminación	-11.2825
▁favorite	-11.2826
▁compressed	-11.2826
▁apagado	-11.2826
▁Both	-11.2827
▁established	-11.2827
▁holds	-11.2828
▁Browsing	-11.2828
▁developed	-11.2828
▁mentioned	-11.283
▁Extraer	-11.2831
▁capacidades	-11.2834
▁unsaved	-11.2836
▁mensajería	-11.2836
▁Muy	-11.2836
▁#%1	-11.2837
▁3.3	-11.284
▁Simulate	-11.284
▁Connected	-11.2843
ach	-11.2844
▁Mor	-11.2849
▁kim	-11.2852
▁quoted	-11.2853
59	-11.2856
ov	-11.2858
▁lleva	-11.2859
bu	-11.2861
▁kdeedu	-11.2862
▁towards	-11.287
";	-11.287
▁etiquetado	-11.2874
Man	-11.2874
▁sprite	-11.2875
▁RA	-11.2878
▁bad	-11.2879
using	-11.288
▁miembro	-11.2883
▁attendee	-11.2883
▁avanzado	-11.2884
▁requerido	-11.2887
▁Question	-11.2888
▁LED	-11.2893
▁genéricas	-11.2901
cap	-11.2904
▁annotation	-11.2904
▁activas	-11.2905
ient	-11.2906
▁lineal	-11.2912
pen	-11.2919
▁agregar	-11.2923
▁Non	-11.2923
▁sed	-11.2925
uk	-11.2927
blue	-11.2928
Todos	-11.293
▁recordar	-11.2935
▁app	-11.2946
gl	-11.295
hedron	-11.295
▁Apr	-11.2952
▁utilizarlo	-11.2957
▁conducto	-11.2957
bugs	-11.2962
▁Resources	-11.2966
▁conocidos	-11.2971
URL	-11.2972
▁feel	-11.2976
▁Enabled	-11.2983
▁píxel	-11.2985
Window	-11.2987
▁Vistas	-11.2988
ik	-11.2988
▁careful	-11.299
▁Patrón	-11.2993
▁Prefix	-11.2993
▁galería	-11.2993
▁replies	-11.2993
wanadoo	-11.2993
▁kpager	-11.2993
▁anotación	-11.2993
▁grep	-11.2993
▁podcast	-11.2993
▁Zona	-11.2993
▁kdelibs	-11.2993
▁Milk	-11.2993
▁tráfico	-11.2993
▁runlevel	-11.2996
▁helpful	-11.2996
▁eliminación	-11.2998
▁Music	-11.2999
▁strong	-11.3001
▁primaria	-11.3001
▁Slideshow	-11.3002
▁native	-11.3003
IT	-11.3004
▁separately	-11.3004
▁actualizada	-11.3007
▁maildir	-11.3009
▁markup	-11.3012
▁RIP	-11.3012
▁movement	-11.3016
tex	-11.3019
▁aumenta	-11.302
▁asociar	-11.302
▁Tho	-11.302
80	-11.302
▁cert	-11.3024
▁rotar	-11.3028
▁Doble	-11.3029
▁escalado	-11.303
▁issue	-11.303
▁detecta	-11.303
▁Unir	-11.3034
▁dump	-11.3034
800	-11.3037
▁minuto	-11.3038
▁iso	-11.3042
17	-11.3042
▁diagrams	-11.3045
▁lenta	-11.3053
▁esclavo	-11.3053
▁Cadena	-11.3054
ncia	-11.3054
▁determined	-11.3054
▁freez	-11.3054
▁convertirá	-11.3057
▁Pattern	-11.3058
▁exercise	-11.3061
▁minute	-11.3061
▁ejercicio	-11.3061
99	-11.3063
ence	-11.3071
▁Place	-11.3072
Edit	-11.3074
▁pid	-11.308
▁puertos	-11.3081
▁IC	-11.3083
ándolo	-11.3084
▁Tareas	-11.3085
▁Visual	-11.3086
▁Recursos	-11.3087
▁formatear	-11.309
uz	-11.3094
Dónde	-11.3098
ftp	-11.3099
transaction	-11.31
número	-11.31
normalmente	-11.3101
▁Parec	-11.3103
▁miembros	-11.3104
▁Wa	-11.3105
intentando	-11.3105
uri	-11.3107
Start	-11.3108
wal	-11.3113
gi	-11.3115
SE	-11.3115
app	-11.3115
▁365	-11.3119
▁Symbols	-11.312
▁human	-11.3122
late	-11.3122
▁incrementa	-11.3124
▁pen	-11.3127
tta	-11.3127
▁Harris	-11.3131
▁Entre	-11.3139
▁originales	-11.3141
▁reload	-11.3143
▁organize	-11.3146
▁Effects	-11.3147
esto	-11.3156
▁estimate	-11.3157
más	-11.3158
▁Agrupa	-11.3163
▁horizon	-11.3164
▁Almacena	-11.3165
▁aguj	-11.3165
▁Chiasmus	-11.3165
▁Gallery	-11.3165
▁Karbon	-11.3165
▁Resolution	-11.3165
▁Staikos	-11.3165
▁apropiada	-11.3165
▁festival	-11.3165
▁heavy	-11.3165
▁jerarquía	-11.3165
▁skanlite	-11.3165
XLIFF	-11.3165
▁DOC	-11.3165
▁Recuerde	-11.3165
▁phase	-11.3165
▁dividido	-11.3165
▁Yellow	-11.3166
▁unirse	-11.3166
▁FreeBSD	-11.3166
▁Muchos	-11.3166
▁Gimp	-11.3166
▁manteniendo	-11.3166
▁VPL	-11.3166
▁spool	-11.3166
▁retorno	-11.3166
▁calculadora	-11.3166
▁Explorar	-11.3167
▁fueron	-11.3167
▁introduction	-11.3167
▁Equatorial	-11.3167
▁ocultará	-11.3168
▁Duplicar	-11.3168
▁Polygon	-11.3169
▁Sección	-11.317
▁splash	-11.317
▁pulsaciones	-11.317
▁unexpected	-11.317
▁pocos	-11.3171
▁offline	-11.3172
▁training	-11.3172
▁Parse	-11.3173
▁Llamada	-11.3173
▁plug	-11.3175
▁Sieve	-11.3176
▁Grabar	-11.3176
▁Breakpoint	-11.3177
▁Design	-11.3181
ight	-11.3181
▁bloqueada	-11.3185
▁Jo	-11.3185
▁inline	-11.3186
▁grade	-11.3186
▁Visible	-11.3187
▁counter	-11.3187
ite	-11.3187
▁News	-11.3188
▁floating	-11.319
▁disables	-11.3192
▁traditional	-11.3192
▁Timeout	-11.3193
▁utf	-11.3195
▁Permissions	-11.3195
▁ganar	-11.3196
▁perl	-11.3197
▁interesting	-11.3202
bles	-11.3203
▁pase	-11.3208
▁Sender	-11.3211
▁merged	-11.3211
▁Compare	-11.3211
▁Capa	-11.3226
▁incidencia	-11.3228
▁básica	-11.3229
▁Slave	-11.3229
▁communication	-11.323
▁tempo	-11.323
mit	-11.3231
▁Julian	-11.3234
▁shadow	-11.3236
▁computers	-11.3236
bed	-11.3237
▁Sea	-11.3243
aga	-11.3244
▁photos	-11.3247
▁diapositivas	-11.3251
▁weather	-11.3252
▁Parameter	-11.3252
▁azar	-11.3255
Auto	-11.3265
mod	-11.3266
should	-11.3267
▁Cuentas	-11.327
XML	-11.3271
display	-11.3274
HOWTO	-11.3274
New	-11.3274
Media	-11.3275
Filter	-11.3275
sólo	-11.3275
▁controlan	-11.3277
▁invitations	-11.3278
▁mo	-11.328
Dir	-11.3293
▁cifrados	-11.3295
▁aumentar	-11.3313
▁Em	-11.3319
ulsando	-11.3321
ze	-11.3322
▁diálogos	-11.3323
▁Contain	-11.3325
▁recibe	-11.3328
▁Baja	-11.3333
▁Dock	-11.3335
▁insertará	-11.3338
▁quiz	-11.3338
▁tradicional	-11.3339
▁intermedia	-11.334
▁Botones	-11.3341
▁DeskJet	-11.3341
▁Igual	-11.3341
▁buzón	-11.3341
▁empieza	-11.3341
▁escáner	-11.3341
▁explanation	-11.3341
▁focal	-11.3341
▁hierarchy	-11.3341
▁montón	-11.3341
▁reproduzca	-11.3341
▁threshold	-11.3341
▁consigue	-11.3341
▁inesperado	-11.3341
▁facilidad	-11.3341
▁Learn	-11.3341
▁emisión	-11.3341
▁feedback	-11.3341
▁trouble	-11.3341
▁Round	-11.3341
▁digging	-11.3341
▁combinaciones	-11.3341
▁extendido	-11.3342
▁excepción	-11.3343
,...)	-11.3343
▁amarillo	-11.3345
▁whitespace	-11.3345
▁cavar	-11.3346
▁planets	-11.3347
▁Three	-11.3348
lla	-11.3349
▁finger	-11.3349
▁listen	-11.335
▁Jos	-11.3351
▁Incoming	-11.3351
▁fixes	-11.3355
▁spelling	-11.3355
▁firmas	-11.3356
IR	-11.3356
▁Factor	-11.336
▁Costa	-11.3361
cent	-11.3361
▁escuchar	-11.3362
ist	-11.3364
▁cambiando	-11.3367
▁flow	-11.3369
▁Parar	-11.3369
én	-11.337
▁Grande	-11.3371
▁postal	-11.3372
▁Same	-11.3372
▁Franc	-11.3374
▁seis	-11.3376
▁viewed	-11.3378
▁Strings	-11.3381
▁menudo	-11.3389
▁21	-11.3391
▁math	-11.3396
▁Take	-11.3398
▁Far	-11.3398
▁her	-11.3401
ture	-11.3403
nes	-11.3406
▁Difference	-11.3407
▁privado	-11.3407
▁hijo	-11.3409
▁tono	-11.3414
ata	-11.3415
▁Extension	-11.3418
DATA	-11.3421
▁Grupos	-11.343
▁edges	-11.3431
ST	-11.3431
▁paragraph	-11.3431
▁Inter	-11.3431
▁graphic	-11.3436
▁3:	-11.3438
▁Answers	-11.3438
▁ne	-11.3442
MM	-11.3444
session	-11.3446
env	-11.3448
application	-11.3454
length	-11.3454
qué	-11.3454
oli	-11.3457
Size	-11.3457
CO	-11.3457
▁notation	-11.3461
ección	-11.3475
▁purposes	-11.3476
▁Dina	-11.3477
ique	-11.3482
;),	-11.3483
▁Geo	-11.3488
▁namespace	-11.3494
▁draws	-11.3496
▁distributions	-11.3499
\\\\	-11.3501
▁months	-11.3501
500	-11.3506
▁Drive	-11.3507
cido	-11.3509
Use	-11.3514
▁hot	-11.3515
julio	-11.3516
ld	-11.3517
trategies	-11.3519
▁Añada	-11.3519
▁Círculo	-11.3519
▁Destino	-11.3519
▁Nebula	-11.3519
▁Negrita	-11.3519
▁clásico	-11.3519
▁incluya	-11.3519
▁universal	-11.3519
▁variety	-11.3519
▁Blank	-11.3519
▁Pacific	-11.3519
▁Negro	-11.3519
▁entities	-11.3519
▁Saturación	-11.3519
▁archivadas	-11.3519
▁Niehaus	-11.352
▁añadiendo	-11.352
evin	-11.352
▁protection	-11.352
▁OpenDocument	-11.352
▁busque	-11.352
▁checksum	-11.352
▁inicialización	-11.352
▁Guía	-11.3521
▁Kleopatra	-11.3521
▁absoluto	-11.3521
▁Inhabilitar	-11.3521
▁pay	-11.3522
▁Dario	-11.3522
▁Hansen	-11.3522
▁Unmount	-11.3523
▁Singer	-11.3523
▁battery	-11.3523
▁realidad	-11.3524
▁Regional	-11.3525
▁gnupg	-11.3526
▁Categorías	-11.3526
▁crontab	-11.3526
▁kstart	-11.3527
▁sa	-11.3527
▁borrará	-11.3528
▁especificación	-11.353
▁implementado	-11.3531
▁World	-11.3531
▁Thu	-11.3531
▁although	-11.3532
55	-11.3533
▁NAT	-11.3533
▁lanzar	-11.3534
▁casa	-11.3539
▁MiB	-11.354
▁vary	-11.3541
▁Permisos	-11.3544
▁accepted	-11.3544
ima	-11.3546
▁communicate	-11.3548
▁Envío	-11.355
▁futuras	-11.355
▁operativos	-11.3554
▁metro	-11.3557
coja	-11.3558
▁linux	-11.3561
▁ejecutarse	-11.3563
▁Sent	-11.3565
▁timed	-11.3566
run	-11.3569
Ha	-11.357
▁dimensions	-11.3572
▁intent	-11.3573
▁permanece	-11.3574
own	-11.3578
▁extend	-11.3587
▁Palabras	-11.3589
▁car	-11.3589
▁permitida	-11.3591
▁fun	-11.3592
▁grado	-11.3593
▁na	-11.3595
▁Lib	-11.3598
▁Put	-11.3599
▁intento	-11.3601
▁curvas	-11.3608
win	-11.3611
▁5,	-11.3614
column	-11.3615
scribing	-11.3616
ér	-11.3626
▁Kr	-11.3633
sync	-11.3635
limit	-11.3636
ging	-11.3639
▁permita	-11.3646
kore	-11.3656
▁Hans	-11.366
▁pasará	-11.366
19	-11.366
▁2001,	-11.3668
▁almacena	-11.367
▁8,	-11.3673
lat	-11.3682
▁Indent	-11.3688
▁achieve	-11.3689
oan	-11.3694
▁film	-11.3695
▁Protect	-11.37
▁smooth	-11.37
dominican	-11.3701
▁Enabling	-11.3701
▁KGoldrunner	-11.3701
▁Larrosa	-11.3701
▁mosaico	-11.3701
▁procedure	-11.3701
▁floor	-11.3701
▁perdido	-11.3701
▁Geometría	-11.3701
▁Calculadora	-11.3701
▁mechanism	-11.3701
▁cabeza	-11.3701
▁Neundorf	-11.3701
▁Batch	-11.3702
▁integration	-11.3702
▁averiguar	-11.3702
▁frequently	-11.3702
▁static	-11.3702
▁mix	-11.3703
▁móvil	-11.3703
▁Agregar	-11.3704
▁XHTML	-11.3705
▁Prompt	-11.3705
▁Composer	-11.3706
▁cercano	-11.3707
Missing	-11.3707
▁Gary	-11.3707
zaire	-11.3707
▁Patch	-11.3708
▁carátulas	-11.371
Pino	-11.3711
▁Dr	-11.3712
▁Freez	-11.3713
▁Pone	-11.3714
▁Modified	-11.3715
error	-11.3719
▁supone	-11.3719
▁Centrar	-11.372
▁smb	-11.3722
▁vicente	-11.3724
▁IM	-11.3727
mexic	-11.3729
▁Train	-11.373
▁Wind	-11.373
13	-11.3731
▁lectores	-11.3733
▁auth	-11.3734
gui	-11.3734
▁Finalizar	-11.3737
▁costs	-11.3739
▁mar	-11.3742
▁UA	-11.3743
ken	-11.3744
▁review	-11.3745
▁6.	-11.3746
▁Deselect	-11.3747
▁eps	-11.3751
▁seleccionarlo	-11.3752
▁Am	-11.3759
▁Vuelv	-11.376
▁concept	-11.3764
aba	-11.3764
Previsualización	-11.3765
▁pending	-11.3769
▁arrows	-11.377
▁'?	-11.377
▁distintas	-11.3772
▁numérica	-11.3775
▁compartida	-11.3775
▁restante	-11.3775
▁informativo	-11.3776
▁association	-11.3776
▁aplicable	-11.3776
0;	-11.3786
lip	-11.3787
▁simbólicos	-11.3788
▁lesson	-11.3788
▁Apple	-11.379
OR	-11.3791
▁Hole	-11.3793
▁Owner	-11.3799
▁cable	-11.3806
▁formado	-11.3807
▁permanente	-11.3807
svn	-11.3808
HTML	-11.3811
Button	-11.3819
template	-11.3819
▁GL	-11.3827
online	-11.383
disk	-11.3838
RT	-11.3841
▁libros	-11.3845
▁belongs	-11.3848
▁pide	-11.3848
▁5)	-11.3848
segundos	-11.385
▁antiguas	-11.3852
▁ping	-11.3857
▁emergentes	-11.3862
▁Saver	-11.3867
▁append	-11.3867
▁hechos	-11.3868
▁informes	-11.3868
▁necesidad	-11.3878
▁Paint	-11.3884
▁Quiz	-11.3884
enezuela	-11.3885
▁Civil	-11.3886
▁Cloud	-11.3886
▁Determine	-11.3886
▁Envelope	-11.3886
▁Ettrich	-11.3886
▁Helge	-11.3886
▁Kingdom	-11.3886
▁Nebulosa	-11.3886
▁Proporciona	-11.3886
▁kanji	-11.3886
▁spacing	-11.3886
▁Italic	-11.3886
▁NGC	-11.3886
▁Optical	-11.3886
▁montones	-11.3886
▁Waals	-11.3886
▁Discard	-11.3886
▁Adobe	-11.3886
▁Prefijo	-11.3886
▁exposición	-11.3886
▁nativo	-11.3886
▁Coloca	-11.3887
▁extendida	-11.3887
▁rating	-11.3887
▁charset	-11.3887
▁eMovix	-11.3887
wml	-11.3887
▁Generation	-11.3887
▁fase	-11.3887
▁Debugger	-11.3888
word	-11.3888
▁validez	-11.3888
▁inserta	-11.3889
Various	-11.389
▁Torrent	-11.3891
▁increases	-11.3891
▁Bluetooth	-11.3892
▁derivada	-11.3892
▁Channels	-11.3894
▁Dar	-11.3897
▁Resume	-11.3898
our	-11.3899
▁metros	-11.3899
▁terminada	-11.3899
▁entidades	-11.39
▁Gi	-11.3901
▁Additionally	-11.3901
▁correr	-11.3904
▁reverse	-11.3905
▁Articles	-11.391
▁Perform	-11.391
▁cannon	-11.391
max	-11.3915
▁noise	-11.3915
▁fiable	-11.3917
▁Arguments	-11.3919
such	-11.3923
▁Firmar	-11.3925
▁ru	-11.3927
▁salga	-11.393
▁considerar	-11.3932
pan	-11.3932
▁Net	-11.3941
▁falla	-11.3942
▁seek	-11.3942
▁expire	-11.395
▁Bas	-11.3952
▁emoticons	-11.3954
▁latter	-11.3958
▁ro	-11.3962
▁worksheet	-11.3962
▁subsistema	-11.3964
▁negativo	-11.3964
▁subtítulo	-11.3966
▁marcados	-11.3966
▁drives	-11.3967
▁extracto	-11.3968
▁calculation	-11.397
▁checks	-11.397
▁Photograph	-11.3971
▁concepto	-11.3974
▁guardarla	-11.3975
lets	-11.3976
comp	-11.3976
▁answers	-11.398
▁pole	-11.3982
pp	-11.3984
▁processed	-11.3988
tional	-11.3993
DD	-11.3993
▁Maximize	-11.3996
▁ejecutado	-11.3997
▁Developers	-11.3998
▁topic	-11.3998
▁SS	-11.4001
▁transform	-11.4004
Result	-11.4009
Database	-11.4009
▁Comentarios	-11.401
author	-11.401
▁Buttons	-11.4012
▁Descarga	-11.4015
▁age	-11.4016
▁realizará	-11.4025
Es	-11.403
▁Numbers	-11.404
▁finaliza	-11.4044
▁Attachments	-11.4046
▁magnitud	-11.4055
▁lee	-11.4055
▁repite	-11.4059
▁Hards	-11.4061
▁considera	-11.4062
▁advance	-11.4064
▁Classic	-11.4066
case	-11.4068
▁emulado	-11.4071
▁País	-11.4072
▁Occidental	-11.4075
▁Superior	-11.4075
▁física	-11.4075
▁Máscara	-11.4075
▁Palette	-11.4075
▁Recurrence	-11.4075
▁Requisitos	-11.4075
▁Responsable	-11.4075
▁Universal	-11.4075
▁Wrong	-11.4075
▁anunciadora	-11.4075
▁inactiva	-11.4075
▁leyenda	-11.4075
▁proporción	-11.4075
▁reinicie	-11.4075
▁transacción	-11.4075
▁Mauricio	-11.4075
▁razones	-11.4075
▁taking	-11.4075
▁parallel	-11.4075
▁Exchange	-11.4075
▁Bitrate	-11.4075
▁Upgrade	-11.4075
#160;	-11.4075
▁Scanning	-11.4075
▁Alpha	-11.4076
▁Krecipes	-11.4076
▁Unexpected	-11.4076
▁inicializar	-11.4076
▁GIF	-11.4076
▁Carlos	-11.4077
▁composición	-11.4077
▁Autostart	-11.4077
▁escribiendo	-11.4078
▁Altitude	-11.4079
▁matriz	-11.4079
html	-11.4082
▁failure	-11.4082
▁existir	-11.4083
▁Required	-11.4083
▁published	-11.4083
▁greeter	-11.4084
▁Soft	-11.4086
▁ESP	-11.4086
erra	-11.4089
▁tabuladores	-11.409
▁Usenet	-11.4091
▁expired	-11.4094
tool	-11.4095
▁Eliminando	-11.4097
▁register	-11.4099
▁Fetching	-11.41
▁adjusted	-11.41
▁observa	-11.4101
▁persons	-11.4101
▁usable	-11.4101
▁inversión	-11.4102
▁elimine	-11.4111
▁alfa	-11.4112
ok	-11.4112
▁scrolling	-11.4113
ey	-11.4114
▁Copies	-11.4126
▁2002,	-11.4136
▁situar	-11.4137
▁galaxias	-11.4146
▁disappear	-11.4147
▁indicated	-11.4149
lis	-11.415
dministración	-11.4152
▁noche	-11.4153
▁margin	-11.4154
▁Commit	-11.4154
▁coincidencias	-11.4156
▁mejoras	-11.4157
▁entrante	-11.4157
sen	-11.4157
▁oculto	-11.4157
▁Gráfico	-11.4157
▁adjustment	-11.4163
▁copiado	-11.4165
▁Ok	-11.4167
▁Started	-11.4169
▁checker	-11.417
▁abrirlo	-11.4171
▁Desplazar	-11.4172
▁dato	-11.4174
▁installing	-11.4177
OL	-11.4178
▁Ru	-11.4182
document	-11.4185
▁LD	-11.4191
gen	-11.4192
zer	-11.4193
▁Extract	-11.42
▁Clock	-11.4201
▁Hit	-11.4201
address	-11.4202
ku	-11.4208
▁bloquear	-11.4208
(0)	-11.421
ally	-11.4211
uid	-11.4212
▁Habilita	-11.4217
▁Pie	-11.4218
▁live	-11.4223
but	-11.4223
▁Val	-11.4226
gra	-11.4227
▁cue	-11.4233
▁sf	-11.4234
▁citas	-11.4242
▁abort	-11.4243
▁Tile	-11.4247
▁Slow	-11.4249
78	-11.4253
▁3.1	-11.4254
▁Cha	-11.4255
▁initialize	-11.4256
▁Dur	-11.4259
states	-11.4261
▁introducidos	-11.4261
▁prior	-11.4266
▁Dolphin	-11.4267
▁GroupWise	-11.4267
▁Gwenview	-11.4267
▁Shadow	-11.4267
▁arbitrary	-11.4267
▁sitúa	-11.4267
▁Jesper	-11.4267
▁Refresca	-11.4267
▁Licencia	-11.4267
▁contendrá	-11.4267
▁gpgsm	-11.4267
▁instale	-11.4267
▁samba	-11.4267
▁docbook	-11.4268
▁compatibility	-11.4268
▁Dri	-11.4268
▁secuencias	-11.4268
▁foobar	-11.4268
▁PVR	-11.4268
▁ocurrir	-11.4268
▁asume	-11.4268
▁Libreta	-11.4268
▁funcionamiento	-11.4269
▁Frequently	-11.427
▁Deller	-11.427
▁Dominio	-11.4271
▁Semana	-11.4271
▁Char	-11.4271
▁Navegar	-11.4272
▁Smooth	-11.4272
▁TRUE	-11.4272
▁repeticiones	-11.4273
▁Previsualizar	-11.4273
▁Pedro	-11.4274
▁crítico	-11.4274
▁Escriba	-11.4275
cas	-11.4275
▁Extended	-11.4275
▁sharing	-11.4277
▁ics	-11.4277
▁Disc	-11.4278
▁corchetes	-11.4281
▁procesamiento	-11.4284
non	-11.4286
▁Translate	-11.4287
▁counted	-11.429
▁affected	-11.4291
▁Arch	-11.4292
exp	-11.4292
▁PSK	-11.4292
▁improvements	-11.4292
▁Best	-11.4298
▁ampliar	-11.43
ford	-11.4304
▁generally	-11.4305
▁Verifiqu	-11.4306
1=	-11.4307
▁linked	-11.4315
elli	-11.4316
▁dri	-11.4316
▁generado	-11.4316
▁decrypt	-11.4319
▁planificar	-11.4322
▁em	-11.4325
▁Ban	-11.4327
alf	-11.4334
▁Efectos	-11.4344
▁asociados	-11.4348
▁fails	-11.4349
▁lógica	-11.4352
▁stencil	-11.4353
▁Cambio	-11.4353
▁schemes	-11.4355
▁Mat	-11.436
▁calling	-11.4362
▁tracker	-11.4366
▁Corr	-11.4366
▁manag	-11.4371
▁26	-11.4372
▁tercer	-11.4377
▁chooser	-11.4381
▁soft	-11.4383
▁apagar	-11.4385
isa	-11.4388
etter	-11.4388
▁Different	-11.439
▁issues	-11.4392
cadena	-11.4396
Column	-11.4397
Current	-11.4398
caption	-11.4398
▁cat	-11.4399
89	-11.4405
▁occurrences	-11.4407
eu	-11.4412
▁tests	-11.4417
▁grouped	-11.4418
▁adjuntar	-11.4429
▁pedir	-11.4435
▁GB	-11.4437
▁compatibles	-11.4441
▁Updat	-11.4444
▁Prueb	-11.4448
▁Compute	-11.4449
lgeria	-11.445
face	-11.4452
▁2008,	-11.4452
▁Ki	-11.4454
▁dividir	-11.4457
ecause	-11.4457
▁Véa	-11.4459
razil	-11.446
IP	-11.446
▁Im	-11.4462
▁Coincide	-11.4463
comenzando	-11.4463
▁Añadiendo	-11.4463
▁Estándar	-11.4463
▁Frequency	-11.4463
▁Hawaii	-11.4463
▁Pacífico	-11.4463
▁Proceso	-11.4463
▁Zealand	-11.4463
▁cumpleaños	-11.4463
▁protección	-11.4463
▁Espere	-11.4463
▁internacional	-11.4463
▁geographic	-11.4463
▁price	-11.4463
▁merging	-11.4463
▁pierde	-11.4463
▁pudieron	-11.4463
▁walk	-11.4463
▁boundary	-11.4463
▁Sharing	-11.4464
▁explícitamente	-11.4464
▁entender	-11.4464
▁cuya	-11.4464
▁comprueba	-11.4464
▁decoración	-11.4464
▁creó	-11.4464
▁undone	-11.4465
▁basis	-11.4465
▁kfind	-11.4466
▁Mask	-11.4466
▁precio	-11.4466
▁150	-11.4466
▁verified	-11.4466
▁intensidad	-11.4467
▁mailbox	-11.4467
▁Conversion	-11.4467
▁posteriormente	-11.4468
▁Draft	-11.4468
▁vía	-11.4468
▁Minimize	-11.4469
▁Comparar	-11.4469
▁Kurt	-11.447
▁jpeg	-11.447
▁relativas	-11.4471
▁#1	-11.4471
▁integrated	-11.4472
▁pruebe	-11.4473
▁anillo	-11.4474
▁3.0	-11.4474
nu	-11.4476
archivo	-11.4477
▁crashed	-11.448
note	-11.4482
▁Validate	-11.4486
▁PIM	-11.4488
▁compared	-11.4489
▁digitales	-11.45
ated	-11.4501
▁Give	-11.4503
rus	-11.4503
En	-11.4505
▁500	-11.4507
▁demo	-11.4508
gram	-11.4512
▁cruz	-11.4512
▁pares	-11.4515
65	-11.4517
▁trabaja	-11.4519
▁ó	-11.4523
▁Mucha	-11.4525
▁Ku	-11.4526
▁caused	-11.4526
▁exista	-11.4528
▁posiblemente	-11.4529
▁guardarán	-11.453
▁PF	-11.4534
Mi	-11.454
▁incluido	-11.4541
▁onda	-11.455
▁pareja	-11.4551
▁Pestaña	-11.4551
▁wildcard	-11.4552
▁Objeto	-11.4553
▁Answer	-11.4553
▁Recurso	-11.4553
▁friends	-11.4555
▁figura	-11.4561
▁cortar	-11.4562
▁turns	-11.4562
▁Dates	-11.4564
▁sombra	-11.4565
IE	-11.4566
▁mostrarse	-11.4572
▁cúbico	-11.4585
▁Shower	-11.4586
▁cap	-11.4587
▁periods	-11.459
▁listo	-11.4591
ON	-11.4592
]]	-11.4593
player	-11.46
artist	-11.4605
year	-11.4608
cast	-11.4608
WM	-11.4615
este	-11.4615
▁registrar	-11.4618
vatio	-11.4631
70	-11.4635
▁beta	-11.4635
▁Comments	-11.4644
%{	-11.4644
▁Alias	-11.4655
37	-11.4658
ntes	-11.466
▁brief	-11.466
▁técnica	-11.4661
▁KWin	-11.4663
▁Automático	-11.4663
▁Característica	-11.4663
▁Exclude	-11.4663
▁Joseph	-11.4663
▁KNemo	-11.4663
▁Pedersen	-11.4663
▁Seguridad	-11.4663
▁español	-11.4663
▁DOM	-11.4663
▁geometría	-11.4663
▁Dakota	-11.4663
▁Cubic	-11.4663
VCal	-11.4663
▁Desconectar	-11.4663
▁chain	-11.4663
▁Kooka	-11.4663
▁Good	-11.4663
▁Japanese	-11.4664
▁risk	-11.4664
▁scanning	-11.4664
▁recomendable	-11.4664
▁Duration	-11.4664
▁vuelta	-11.4664
▁Escoger	-11.4664
▁Upper	-11.4666
▁Dejar	-11.4666
▁SDL	-11.4666
▁MSN	-11.4666
▁agent	-11.4667
▁Sequence	-11.4668
▁enabling	-11.4668
▁Probar	-11.4668
▁Sendmail	-11.4668
▁Formatting	-11.4671
▁Decimal	-11.4672
▁obligatorio	-11.4673
▁Canales	-11.4675
▁Blur	-11.4676
▁yellow	-11.4677
▁4)	-11.4677
▁Signal	-11.4678
▁Hot	-11.4678
▁kdesdk	-11.4679
▁pool	-11.4679
ning	-11.468
▁Demo	-11.468
▁Guardando	-11.4681
▁AND	-11.4681
▁Contributors	-11.4685
sudan	-11.4685
▁Optional	-11.4685
▁Aspect	-11.4686
▁Contraste	-11.4686
▁IDE	-11.4688
▁Scheduled	-11.4689
▁Arc	-11.4691
▁kdebase	-11.4692
▁independent	-11.4692
▁wireless	-11.4694
▁globally	-11.4695
▁aparezcan	-11.4695
▁Head	-11.4697
▁Escalar	-11.47
▁presionar	-11.4701
▁Clos	-11.4712
tools	-11.4712
▁Subtitles	-11.4715
sky	-11.4715
▁Hayes	-11.4716
▁sobreescribir	-11.4717
low	-11.4719
▁";	-11.4723
▁rip	-11.4728
:00	-11.4728
ender	-11.4729
▁Transform	-11.4732
▁pointing	-11.4734
▁svn	-11.4736
▁Hu	-11.4736
Observatorio	-11.4737
▁0.7	-11.474
files	-11.4746
vea	-11.4747
▁Suma	-11.4747
install	-11.4749
▁expect	-11.4749
▁Juga	-11.475
▁Contenido	-11.4755
▁0.2	-11.4756
▁receta	-11.4756
▁criterio	-11.4757
uch	-11.4758
▁modificada	-11.4758
▁logs	-11.4758
▁begins	-11.4759
▁Hour	-11.4759
ular	-11.476
▁Tarea	-11.476
▁comprimidos	-11.4763
▁7,	-11.4765
▁newer	-11.4765
▁Ola	-11.4771
▁Objetos	-11.4775
▁Debi	-11.4779
par	-11.4779
▁Ti	-11.4781
▁importa	-11.4782
ense	-11.4784
▁Opera	-11.4785
MD	-11.479
ña	-11.4794
▁six	-11.4795
scan	-11.4797
output	-11.4802
▁seguirá	-11.4804
UN	-11.4807
▁1.5	-11.4813
solo	-11.4818
dd	-11.4819
Char	-11.4823
▁Ab	-11.4838
▁Planet	-11.4842
pero	-11.4845
▁giv	-11.4847
▁básicos	-11.4848
▁writer	-11.4849
▁ft	-11.485
▁importado	-11.4859
weden	-11.4862
▁2007-2008	-11.4867
▁Carácter	-11.4867
▁Circular	-11.4867
▁Diagonal	-11.4867
▁Ignacio	-11.4867
▁KJots	-11.4867
▁KRunner	-11.4867
▁KWrite	-11.4867
▁Reminder	-11.4867
▁Ridge	-11.4867
▁cañón	-11.4867
▁milisegundos	-11.4867
▁requerida	-11.4867
▁sucesivamente	-11.4867
▁tabulature	-11.4867
▁tesoro	-11.4867
▁themselves	-11.4867
▁Again	-11.4867
▁opposite	-11.4867
▁Geographic	-11.4867
▁twice	-11.4867
▁Direccion	-11.4867
▁timbre	-11.4867
▁alignment	-11.4868
▁Vector	-11.4868
▁anclaje	-11.4868
▁Formula	-11.4868
▁tunnel	-11.4868
▁chance	-11.4868
▁slideshow	-11.4868
▁Have	-11.4868
▁Presentation	-11.4868
▁Offset	-11.4868
Matic	-11.4868
▁Conversión	-11.4868
▁demostración	-11.4868
▁blinken	-11.4868
▁deletion	-11.4868
▁manner	-11.4869
▁comunicarse	-11.4869
▁karaoke	-11.4869
▁fusionado	-11.4869
▁Advierta	-11.4869
▁fusionar	-11.487
▁somewhere	-11.487
▁Warn	-11.487
▁Obs	-11.4871
▁explicación	-11.4871
▁Messier	-11.4871
▁everyone	-11.4871
▁lecciones	-11.4871
▁tecleando	-11.4871
▁Sesión	-11.4872
▁Resaltar	-11.4872
▁Underline	-11.4872
▁italic	-11.4872
▁(*)	-11.4873
▁Expected	-11.4874
▁Publicar	-11.4874
cat	-11.4874
▁Shutdown	-11.4875
▁literal	-11.4875
▁disconnected	-11.4877
▁Czech	-11.4878
▁Choice	-11.4878
▁Roll	-11.488
▁perderán	-11.4881
▁submit	-11.4882
▁China	-11.4882
▁unsigned	-11.4882
▁creando	-11.4887
▁paused	-11.4887
▁batch	-11.4887
▁Timer	-11.4891
▁FOV	-11.4894
]{	-11.4897
▁renamed	-11.4899
▁muestreo	-11.49
ung	-11.4903
ev	-11.4904
▁identidades	-11.491
▁planificador	-11.4911
▁Hz	-11.4913
▁robots	-11.4915
▁sends	-11.4917
eve	-11.4925
▁Cu	-11.493
▁configurados	-11.4933
▁proporciones	-11.4933
apps	-11.4933
▁0.4	-11.4939
58	-11.494
▁basa	-11.4942
rica	-11.4942
▁ba	-11.4945
▁(8	-11.4947
▁variant	-11.495
▁GM	-11.4955
dev	-11.4956
▁Artículo	-11.4964
▁Apodo	-11.4965
▁modifier	-11.4965
▁startkde	-11.4973
▁American	-11.4974
▁soportada	-11.4975
IL	-11.4976
▁attempts	-11.4976
▁Sessions	-11.4984
▁adjustments	-11.4986
▁informa	-11.4987
▁describir	-11.4993
▁Certificates	-11.4995
▁45	-11.4998
▁Entradas	-11.5004
▁Site	-11.5008
BSD	-11.501
Tag	-11.501
Settings	-11.501
Con	-11.5019
▁pos	-11.502
pur	-11.5022
▁portion	-11.5022
west	-11.5027
▁networks	-11.5028
▁lose	-11.5029
agent	-11.503
▁Sha	-11.5037
▁signatures	-11.5039
▁Sta	-11.5043
▁Choos	-11.5045
unk	-11.5045
Config	-11.5049
▁actualizará	-11.5052
mas	-11.5054
ick	-11.5056
▁Spell	-11.5058
▁4:	-11.5063
ami	-11.5065
▁dn	-11.5066
▁laboral	-11.5068
▁protect	-11.5068
▁slots	-11.507
▁product	-11.5074
▁Migra	-11.5074
▁Clean	-11.5075
▁maps	-11.5075
▁Battery	-11.5076
▁Catalog	-11.5076
▁Interrumpir	-11.5076
▁Kanji	-11.5076
▁Región	-11.5076
▁Schenck	-11.5076
▁ahorrar	-11.5076
▁espectro	-11.5076
▁griego	-11.5076
▁pdflatex	-11.5076
▁riesgo	-11.5076
▁triángulo	-11.5076
▁verdadera	-11.5076
▁inserción	-11.5076
▁oblast	-11.5076
▁Incluso	-11.5076
▁broadcast	-11.5076
▁fotográfico	-11.5076
▁variedad	-11.5076
ireland	-11.5076
▁KPresenter	-11.5076
▁Ampliación	-11.5076
▁Nothing	-11.5076
▁obtenido	-11.5076
▁ground	-11.5077
▁Isdale	-11.5077
▁LOG	-11.5077
▁BCC	-11.5077
▁organizador	-11.5077
▁Rellenar	-11.5078
▁Resaltado	-11.5078
▁integración	-11.5078
▁cercana	-11.5078
▁Principal	-11.5079
metric	-11.5079
▁Celestial	-11.5079
▁establecida	-11.508
▁investment	-11.5081
▁kwin	-11.5081
▁Already	-11.5081
▁destroyed	-11.5081
▁moviendo	-11.5083
▁Front	-11.5083
▁registered	-11.5083
▁Cartucho	-11.5083
▁Tape	-11.5084
▁Girar	-11.5085
▁alcanzar	-11.5085
▁importing	-11.5087
▁MAL	-11.5087
IA	-11.5087
infotec	-11.5088
▁randomly	-11.5088
▁Created	-11.5089
▁HST	-11.5091
▁habituales	-11.5091
▁banda	-11.5092
▁fish	-11.5095
▁recorded	-11.5096
▁logical	-11.5101
▁escoja	-11.5103
▁queued	-11.5103
▁colon	-11.5104
▁cool	-11.5105
▁HH	-11.5107
▁Dial	-11.5108
nio	-11.5109
▁solid	-11.5109
▁Lee	-11.511
storing	-11.5118
▁exacto	-11.5123
TA	-11.5123
▁Servidores	-11.5125
▁Avanzadas	-11.5133
▁validar	-11.5142
0.0	-11.5143
▁enlazar	-11.5145
▁plane	-11.5147
▁beside	-11.5149
48	-11.5151
hy	-11.5153
▁verticales	-11.5153
▁detenido	-11.5161
ceania	-11.5163
▁forzar	-11.5163
▁Unidos	-11.5167
▁uid	-11.5168
gal	-11.5173
▁streams	-11.5175
▁effort	-11.5176
▁genérico	-11.5176
▁saliente	-11.5176
▁teclea	-11.5177
▁talk	-11.5178
make	-11.5178
yes	-11.518
▁tratará	-11.5184
▁relativo	-11.5184
▁implement	-11.5187
big	-11.5189
▁0.5	-11.5191
▁provoca	-11.5192
ves	-11.5215
▁consta	-11.5219
▁producto	-11.522
▁limits	-11.522
11)	-11.522
Face	-11.5221
widget	-11.5223
amarok	-11.5223
falso	-11.5224
▁clone	-11.5224
▁36	-11.5227
▁pode	-11.523
▁0.6	-11.5232
▁termina	-11.5233
▁manuales	-11.5236
If	-11.5245
▁artists	-11.5264
(6	-11.5266
▁PIN	-11.5272
▁grouping	-11.5274
▁Que	-11.5274
▁soportar	-11.5276
▁conjuntos	-11.5279
▁manejador	-11.528
▁Informa	-11.5285
ise	-11.5287
▁KWeather	-11.5288
hungary	-11.5289
▁Compartir	-11.5289
▁Distribution	-11.5289
▁Foreground	-11.5289
▁KAddressBook	-11.5289
▁NASA	-11.5289
▁complicado	-11.5289
▁domingo	-11.5289
▁gallery	-11.5289
▁milliseconds	-11.5289
▁slightly	-11.5289
▁"%3"	-11.5289
▁Contador	-11.5289
▁Entity	-11.5289
▁York	-11.5289
▁Valgrind	-11.5289
▁Salvador	-11.5289
▁margen	-11.5289
▁interactiva	-11.5289
▁exterior	-11.5289
▁kdetv	-11.5289
▁ripping	-11.5289
▁shot	-11.5289
▁cónica	-11.5289
▁Gpg	-11.529
Seguir	-11.529
▁Half	-11.529
▁KDiff	-11.529
▁printcap	-11.529
olorlines	-11.529
▁timing	-11.5291
▁Grabando	-11.5292
▁corrupted	-11.5293
▁adecuadamente	-11.5293
▁enhance	-11.5293
▁solicitada	-11.5294
▁Constructor	-11.5295
▁AAVSO	-11.5295
▁gpgconf	-11.5295
▁Comma	-11.5295
urante	-11.5296
▁Mute	-11.5297
everal	-11.5301
▁Gracias	-11.5301
▁SuSE	-11.5302
▁critical	-11.5302
▁sphere	-11.5302
▁configuradas	-11.5302
▁Corta	-11.5305
▁transparency	-11.5305
▁CTRL	-11.5305
▁fetched	-11.5307
▁moon	-11.5307
▁Got	-11.531
▁matrix	-11.5312
▁retrieved	-11.5312
located	-11.5314
▁pure	-11.5314
▁generalmente	-11.5314
jar	-11.5316
▁registrado	-11.5317
OP	-11.5319
cs	-11.5319
▁actualidad	-11.532
ren	-11.532
▁activación	-11.5321
▁Temas	-11.5322
head	-11.5323
▁causar	-11.5326
▁Done	-11.5327
▁lanzador	-11.533
▁erase	-11.533
▁Varia	-11.5333
67	-11.5338
▁switches	-11.534
▁eliminarán	-11.5344
▁pocas	-11.5347
000	-11.5352
▁Headers	-11.5352
▁Connecting	-11.5353
▁Logo	-11.5355
▁Vacia	-11.5358
▁ejecutada	-11.5361
▁Override	-11.5362
kdeaccessibility	-11.5365
▁Che	-11.537
▁almacenados	-11.5373
▁6,	-11.5373
▁KDEDIR	-11.5375
▁Pen	-11.5377
▁sepa	-11.5382
Northern	-11.5387
▁asegura	-11.5391
▁modern	-11.5391
▁ortográfico	-11.5393
▁planificada	-11.5395
▁interesante	-11.5395
▁Resultado	-11.5397
▁modification	-11.5397
▁representado	-11.5399
▁markers	-11.5401
▁accessing	-11.5404
ending	-11.5408
▁Ham	-11.5409
▁instala	-11.5417
▁expandir	-11.5419
▁Bloque	-11.542
▁marker	-11.5422
▁saves	-11.5424
▁incrementar	-11.5426
CI	-11.5427
tive	-11.5437
project	-11.5439
standard	-11.544
▁fluid	-11.544
Advanced	-11.5442
hard	-11.5445
▁seg	-11.5446
tm	-11.5453
▁beam	-11.5453
▁eliminados	-11.546
▁Dot	-11.5465
▁justo	-11.5467
ras	-11.5469
▁cuerpos	-11.5474
gramo	-11.5475
▁siga	-11.5477
▁derechos	-11.5478
tone	-11.5484
ani	-11.5486
▁realizados	-11.5486
▁LAN	-11.5489
▁imprimirá	-11.5495
▁ocupa	-11.5502
▁rafa	-11.5502
ortugal	-11.5504
▁gray	-11.5505
▁Progreso	-11.5506
▁SOCKS	-11.5506
▁Singmaster	-11.5506
▁Sintaxis	-11.5506
▁VGA	-11.5506
▁concrete	-11.5506
▁fracciones	-11.5506
▁físico	-11.5506
▁intensity	-11.5506
▁profundo	-11.5506
▁sólido	-11.5506
▁visibilidad	-11.5506
▁honor	-11.5506
▁suavizado	-11.5506
▁fatal	-11.5506
▁rellene	-11.5506
▁Cartr	-11.5506
▁francés	-11.5506
▁Capture	-11.5506
▁Kard	-11.5506
▁Percent	-11.5506
▁Calculator	-11.5506
▁simultaneously	-11.5506
▁aceleración	-11.5507
▁Foto	-11.5507
▁organización	-11.5507
▁Legal	-11.5507
▁Debajo	-11.5507
▁enviando	-11.5507
▁montada	-11.5508
▁Similar	-11.5508
▁TTS	-11.5508
▁numeración	-11.5508
▁ksirtet	-11.5508
▁Rechazar	-11.5508
▁realice	-11.5508
▁afectan	-11.5509
▁Like	-11.5509
▁validity	-11.551
peta	-11.551
▁anymore	-11.551
▁LCD	-11.5511
▁underlined	-11.5511
▁insertion	-11.5512
▁axes	-11.5512
▁virus	-11.5513
▁preparado	-11.5513
▁omitted	-11.5514
▁bibtex	-11.5517
▁implementada	-11.5519
▁contorno	-11.5519
▁slower	-11.5521
▁Today	-11.5521
eck	-11.5524
vf	-11.5525
▁inclusión	-11.5529
▁archives	-11.5529
▁accessibility	-11.5534
▁ce	-11.5534
2000	-11.5536
▁uploaded	-11.5536
▁panels	-11.5536
▁spell	-11.5538
▁cargará	-11.554
▁handled	-11.5544
▁deshabilitar	-11.555
▁Chooser	-11.5552
▁120	-11.5553
▁desplaza	-11.5553
▁Sar	-11.5555
▁Thanks	-11.5556
referred	-11.556
show	-11.556
▁Later	-11.5562
▁0.8	-11.5563
▁requirements	-11.5564
▁Luka	-11.557
▁Elter	-11.5572
▁falling	-11.5576
▁deep	-11.5576
ró	-11.5581
▁Elig	-11.5583
ike	-11.5592
▁administradores	-11.5593
ify	-11.5594
▁Conflict	-11.5595
bus	-11.5595
▁FOR	-11.5602
▁litros	-11.5603
▁Modes	-11.5606
▁capas	-11.5608
▁facilitar	-11.5611
▁advantage	-11.5615
▁Levels	-11.5615
▁directo	-11.5617
▁motivo	-11.5618
▁blancos	-11.5622
▁Disables	-11.5623
▁lookup	-11.5624
▁escrita	-11.5626
▁Lanza	-11.5628
▁declaration	-11.5629
▁Lot	-11.5633
▁Sch	-11.5636
▁mimetype	-11.5636
▁notación	-11.5643
ales	-11.5649
▁Dos	-11.565
TE	-11.5651
▁du	-11.5652
ries	-11.5654
▁quote	-11.5655
▁conic	-11.5656
▁próximos	-11.5657
4,	-11.5658
Fi	-11.5659
Script	-11.566
▁incompatible	-11.5661
Rule	-11.5661
Select	-11.5662
usuario	-11.5662
Status	-11.5662
▁descartar	-11.5663
▁alternativas	-11.5664
mulación	-11.5665
media	-11.5667
▁pi	-11.5668
▁Contrae	-11.567
▁Way	-11.5673
zar	-11.5675
▁Observ	-11.5676
▁Mag	-11.5677
▁12)	-11.5679
▁Pasa	-11.568
let	-11.568
lp	-11.5682
▁Ac	-11.5683
▁aim	-11.5687
math	-11.5687
esta	-11.5689
ins	-11.5692
▁editarlo	-11.57
▁Matche	-11.5709
orden	-11.5712
▁ingrediente	-11.5714
▁Deshace	-11.5714
jan	-11.5716
▁polar	-11.572
dores	-11.572
▁Expect	-11.5722
▁ERROR	-11.5728
▁Floyd	-11.5728
easiest	-11.5728
▁Apagar	-11.5728
▁Assistant	-11.5728
▁IUPAC	-11.5728
▁Temperature	-11.5728
▁Through	-11.5728
▁anonymous	-11.5728
▁cuánta	-11.5728
▁earlier	-11.5728
▁errónea	-11.5728
▁ligero	-11.5728
▁welcome	-11.5728
▁CHAP	-11.5728
▁triangle	-11.5728
▁Incluye	-11.5728
▁Entrar	-11.5728
▁Foco	-11.5728
▁Swap	-11.5728
▁kmdr	-11.5728
▁trunk	-11.5728
▁Wood	-11.5728
▁Organización	-11.5728
▁Metadata	-11.5728
▁QMake	-11.5728
▁null	-11.5728
▁WEP	-11.5729
▁Cells	-11.5729
▁Johnson	-11.573
▁1.4	-11.573
▁Colaboradores	-11.573
▁pascales	-11.573
▁molar	-11.573
▁Lookup	-11.573
▁Completado	-11.5731
▁stops	-11.5731
▁Without	-11.5731
▁finalice	-11.5732
▁EEUU	-11.5732
▁strength	-11.5732
▁Tablero	-11.5732
▁interaction	-11.5732
▁sucede	-11.5732
▁Wait	-11.5732
▁Actualizando	-11.5732
▁Magenta	-11.5733
▁(\\	-11.5735
▁reemplaza	-11.5735
▁xine	-11.5738
uso	-11.5739
▁Lead	-11.5739
kbounce	-11.5739
▁Kill	-11.574
▁java	-11.5742
▁Correction	-11.5744
▁Ph	-11.5749
▁screensaver	-11.5753
▁minus	-11.5754
▁racoon	-11.5754
▁obtained	-11.5755
▁Easter	-11.5757
ob	-11.5758
▁reemplazado	-11.576
▁borrador	-11.5761
▁deslizadores	-11.5762
▁happening	-11.5762
▁receiver	-11.5763
▁sheets	-11.5769
oso	-11.577
▁temporales	-11.5779
▁Did	-11.578
▁DEC	-11.5782
▁analizador	-11.5788
▁anchor	-11.5789
▁CJK	-11.5797
▁Testing	-11.5814
▁borrados	-11.5819
howto	-11.5824
▁Hail	-11.583
▁ht	-11.5831
▁presentes	-11.5832
▁Plan	-11.5837
rom	-11.5839
aju	-11.5841
▁adecuados	-11.5842
▁palo	-11.5843
▁wallpaper	-11.5843
▁compañero	-11.5844
▁minúscula	-11.5848
▁soportadas	-11.5851
▁habilita	-11.5854
back	-11.5858
▁gana	-11.5859
Search	-11.5861
▁creados	-11.587
sp	-11.5873
▁Names	-11.5876
▁water	-11.5879
▁Símbolos	-11.5886
▁Blu	-11.5887
▁Parte	-11.589
dicated	-11.59
▁anima	-11.5901
▁Projects	-11.5904
▁Termina	-11.5906
▁success	-11.5906
▁75	-11.5909
fg	-11.5909
▁Escoj	-11.591
data	-11.5914
▁27	-11.5915
▁aspectos	-11.5917
▁(4	-11.5918
nik	-11.5925
ito	-11.5927
▁Agent	-11.593
ew	-11.5936
▁hover	-11.5939
▁chose	-11.594
▁Coste	-11.5941
700	-11.5943
▁develop	-11.5944
▁combine	-11.5944
▁graphs	-11.5946
▁(2	-11.5946
▁interact	-11.5947
▁Propiedad	-11.5947
▁synchronize	-11.5948
witzerland	-11.5948
▁Temporar	-11.5949
▁Combina	-11.595
▁typical	-11.5952
▁Abbreviation	-11.5955
▁Estructura	-11.5955
▁Freddi	-11.5955
▁Identities	-11.5955
▁Mirror	-11.5955
▁OASIS	-11.5955
▁Repositorio	-11.5955
▁Strigi	-11.5955
▁Telescope	-11.5955
▁Weilguni	-11.5955
▁conversation	-11.5955
▁destruir	-11.5955
▁esfuerzo	-11.5955
▁galaxies	-11.5955
▁juega	-11.5955
▁satélite	-11.5955
▁tecnología	-11.5955
▁Resizing	-11.5955
▁Tabulador	-11.5955
▁Johnston	-11.5955
▁produzca	-11.5955
Steinberg	-11.5956
▁Virginia	-11.5956
illo	-11.5956
▁denegado	-11.5956
▁estimación	-11.5956
▁downloads	-11.5956
▁Maximizar	-11.5957
▁ELF	-11.5957
07	-11.5957
▁frontend	-11.5957
▁flat	-11.5957
▁hubiera	-11.5958
▁Hoy	-11.5958
▁encargado	-11.596
▁Embedded	-11.596
▁Preferred	-11.596
▁Arcade	-11.5961
▁Luis	-11.5961
▁encountered	-11.5962
▁Carta	-11.5962
▁manipular	-11.5962
▁PM	-11.5963
▁sbin	-11.5963
0,	-11.5964
▁Servicios	-11.5964
▁legal	-11.5965
▁aparición	-11.5965
▁Mobile	-11.5965
28	-11.5966
▁Argentina	-11.5966
▁viendo	-11.5967
▁gama	-11.5968
▁happened	-11.5969
▁pam	-11.597
▁anyone	-11.5972
▁Perfiles	-11.5972
▁repeated	-11.5973
▁Copiando	-11.5973
window	-11.5977
▁llena	-11.5978
▁vpnc	-11.5979
▁Feeder	-11.5979
▁mmm	-11.5979
▁Activado	-11.5981
▁heading	-11.5981
4;	-11.5981
▁cmd	-11.5982
▁room	-11.5984
▁permitidos	-11.5985
▁silencio	-11.5985
▁idénticos	-11.5995
ios	-11.5997
▁restrictions	-11.6003
▁SE	-11.6004
compile	-11.601
▁admiten	-11.6011
9;	-11.6012
plugin	-11.6013
ola	-11.6014
▁contextuales	-11.6014
▁Uploading	-11.6016
▁humano	-11.6016
▁Switches	-11.6018
▁dependencias	-11.6021
2880	-11.6027
▁proteger	-11.6032
▁partículas	-11.6034
ee	-11.6039
▁duplicados	-11.6039
▁Falls	-11.6042
▁AM	-11.6049
▁Product	-11.605
ían	-11.6052
▁Sonidos	-11.6054
▁esperado	-11.6058
▁==	-11.6063
ep	-11.6063
lying	-11.6068
..."	-11.6069
▁motivos	-11.607
▁causa	-11.6072
▁Resultados	-11.6073
▁reinicia	-11.6075
▁recipe	-11.6076
▁lógico	-11.6077
▁protocolos	-11.6077
▁relationship	-11.6077
▁sensible	-11.6077
▁trazo	-11.6077
▁ocurrencia	-11.6077
▁simbólico	-11.6078
▁amigo	-11.6078
▁favorito	-11.6078
amos	-11.6082
▁conocida	-11.6092
▁associations	-11.6093
▁Macro	-11.6093
▁Bat	-11.6096
▁suba	-11.6097
▁consume	-11.6097
▁Extensions	-11.6099
work	-11.6099
▁refers	-11.6104
▁Mol	-11.6106
▁Phrase	-11.6109
▁modificados	-11.6111
▁Threads	-11.6114
▁keeping	-11.612
▁rect	-11.612
Mouse	-11.6121
kmj	-11.6122
servidor	-11.6122
▁KDev	-11.6123
▁Tip	-11.6124
▁configurarlo	-11.6134
▁sentences	-11.6135
AY	-11.6142
ivo	-11.615
inal	-11.6151
▁codes	-11.6153
LO	-11.6157
flags	-11.6163
lock	-11.6163
tunes	-11.6164
tes	-11.6172
▁Staple	-11.6173
▁Italian	-11.6177
▁Important	-11.6179
▁neutral	-11.6179
▁bajar	-11.6181
▁technical	-11.6185
▁Park	-11.6186
ireless	-11.6187
▁Interval	-11.6188
▁pretty	-11.6188
observing	-11.6188
▁Adelante	-11.6188
▁Algoritmo	-11.6188
▁Definición	-11.6188
▁Ecliptic	-11.6188
▁Frerich	-11.6188
▁Mexico	-11.6188
▁NOMBRE	-11.6188
▁Newfoundland	-11.6188
▁Propietario	-11.6188
▁RSIBreak	-11.6188
▁Raabe	-11.6188
▁Subtítulos	-11.6188
▁Yahoo	-11.6188
▁budget	-11.6188
▁dinero	-11.6188
▁excluir	-11.6188
▁revés	-11.6188
▁stuff	-11.6188
▁distinguish	-11.6188
▁establezca	-11.6188
▁(00:00	-11.6188
▁Jongg	-11.6188
▁outgoing	-11.6188
▁comodín	-11.6188
▁kiriki	-11.6188
albania	-11.6188
▁giro	-11.6188
▁limpieza	-11.6188
▁quien	-11.6188
▁permitiéndole	-11.6188
▁dividida	-11.6188
▁Minimizar	-11.6188
▁detendrá	-11.6188
▁Summer	-11.6188
▁Execution	-11.6188
wood	-11.6188
▁libxml	-11.6189
▁animaciones	-11.6189
▁wpa	-11.619
▁grabadora	-11.619
▁Galaxia	-11.619
▁vuelo	-11.6191
▁transferir	-11.6192
▁Ratio	-11.6192
▁suyo	-11.6192
▁Creation	-11.6192
▁Filesystem	-11.6194
▁Suspender	-11.6195
▁KHTML	-11.6195
▁Chino	-11.6196
▁Url	-11.6197
▁appended	-11.6197
▁primario	-11.6198
▁temporalmente	-11.62
▁visibility	-11.62
Synchronization	-11.62
▁WM	-11.62
▁exchange	-11.62
finland	-11.6203
▁Unidades	-11.6205
▁Exists	-11.6205
▁consult	-11.6206
▁parecido	-11.6206
▁Pago	-11.6206
▁Num	-11.6207
▁Noise	-11.6207
▁conveniente	-11.6209
▁stdout	-11.6209
▁Square	-11.621
▁terminated	-11.621
▁launched	-11.6212
▁preserve	-11.6217
▁Modificado	-11.6217
Lo	-11.6221
▁packets	-11.6226
ator	-11.6229
Para	-11.623
▁utilización	-11.6231
▁Desactiva	-11.6231
▁Usuarios	-11.6232
▁dots	-11.6237
▁scheduler	-11.6238
mbre	-11.6247
track	-11.6248
▁matemáticos	-11.6259
sión	-11.6267
▁Serial	-11.627
ñ	-11.6271
▁Enví	-11.6271
▁py	-11.6276
▁engines	-11.6277
ou	-11.6278
▁podrían	-11.6283
tiva	-11.6286
▁sencillas	-11.629
const	-11.629
ller	-11.6296
▁0.9	-11.6296
▁Fields	-11.6302
bl	-11.6309
▁pies	-11.6312
▁friend	-11.6312
▁período	-11.6313
▁fabricante	-11.6314
noName	-11.6315
tp	-11.6315
▁positivo	-11.6315
▁trozo	-11.6315
▁emplea	-11.6315
▁genérica	-11.6316
▁hacerse	-11.632
▁7)	-11.6326
7)	-11.6327
▁Thus	-11.6332
process	-11.6333
▁States	-11.6334
aka	-11.6335
tura	-11.6339
▁VI	-11.634
▁Hor	-11.6341
▁annotations	-11.6342
▁slides	-11.6344
▁completada	-11.6344
▁Trabajos	-11.6345
▁ship	-11.6346
▁ignora	-11.6346
▁Nombres	-11.6347
▁2.6	-11.6352
▁reiniciará	-11.6355
▁situations	-11.6356
DATE	-11.6356
Reason	-11.636
channel	-11.636
también	-11.6361
▁shower	-11.6361
Down	-11.6362
sson	-11.6362
▁disks	-11.6364
▁suficientes	-11.6365
▁magnitudes	-11.6366
▁previews	-11.6369
Box	-11.6369
rik	-11.6376
function	-11.6379
▁Bit	-11.6387
▁Scores	-11.6393
▁grow	-11.6395
▁2000,	-11.6396
▁Documentos	-11.64
▁Pod	-11.6403
▁remains	-11.6404
spell	-11.6406
odavía	-11.6412
▁reject	-11.6421
▁regard	-11.6426
Netherlands	-11.6426
▁2001:23:15:1	-11.6426
▁Alemán	-11.6426
▁Amarillo	-11.6426
▁Cervisia	-11.6426
▁Identificador	-11.6426
▁Inferior	-11.6426
▁Outgoing	-11.6426
▁Oxygen	-11.6426
▁Platform	-11.6426
▁Secret	-11.6426
▁Unfortunately	-11.6426
▁adivinar	-11.6426
▁bodies	-11.6426
▁cursiva	-11.6426
▁juliano	-11.6426
▁ksystraycmd	-11.6426
▁kxkb	-11.6426
▁money	-11.6426
▁renaming	-11.6426
▁síntesis	-11.6426
▁varianza	-11.6426
▁writable	-11.6426
▁Mantia	-11.6426
▁Portuguese	-11.6426
▁racional	-11.6426
▁Gateway	-11.6426
▁fotográfica	-11.6426
▁situaciones	-11.6426
▁integridad	-11.6426
▁Escribió	-11.6426
▁Geometric	-11.6426
▁Danish	-11.6426
▁flashcard	-11.6426
▁quién	-11.6426
▁Raphael	-11.6427
▁FIBS	-11.6427
▁deslizante	-11.6427
▁kpoker	-11.6427
▁Expulsar	-11.6427
▁preferida	-11.6427
▁XIM	-11.6427
▁Offline	-11.6427
▁Polar	-11.6427
▁convenience	-11.6427
▁soundcard	-11.6427
▁Confirmation	-11.6427
▁Rotación	-11.6428
▁MTU	-11.6428
▁Exif	-11.6428
02:00	-11.6428
▁Loop	-11.6428
unnar	-11.6429
▁Monte	-11.6429
▁Replay	-11.6429
▁cerrará	-11.6429
▁sustitución	-11.6429
▁constructor	-11.643
▁xsession	-11.6431
QFont	-11.6432
▁sdb	-11.6432
▁ausente	-11.6432
▁Flat	-11.6432
▁desplazarse	-11.6432
▁cpp	-11.6433
▁scanned	-11.6433
▁extender	-11.6434
▁interesado	-11.6435
▁bastian	-11.6435
▁falsos	-11.6436
▁Parent	-11.6436
▁identified	-11.6436
▁Dispone	-11.6436
▁Importando	-11.6439
▁Hong	-11.6441
▁Fuentes	-11.6441
▁denominada	-11.6441
▁habitualmente	-11.6442
▁pared	-11.6444
▁Master	-11.6445
▁opcionales	-11.6448
▁ER	-11.6449
▁indicadores	-11.6449
▁latin	-11.645
▁audiocd	-11.6451
▁operate	-11.6451
▁Salto	-11.6451
▁sectores	-11.6451
▁dtd	-11.6451
▁Unidirec	-11.6451
▁cancelado	-11.6451
▁meant	-11.6453
▁realce	-11.6454
over	-11.6456
▁tenía	-11.6458
▁reproductores	-11.6462
▁evita	-11.6463
▁Signing	-11.6469
▁niños	-11.647
▁indicando	-11.647
▁Processing	-11.6473
▁envían	-11.648
▁generará	-11.6483
▁mueven	-11.6486
▁sq	-11.6487
▁Fine	-11.6489
act	-11.6492
pm	-11.6492
Info	-11.6494
▁hablar	-11.6495
▁Players	-11.6507
▁combinations	-11.6508
nar	-11.6511
▁Noun	-11.6512
africa	-11.6515
▁Libra	-11.6516
▁IO	-11.6516
RA	-11.6518
▁equipos	-11.6519
▁rellena	-11.652
RM	-11.652
▁Inc	-11.6531
▁protocols	-11.6537
.3@	-11.6537
▁2005.	-11.6542
▁standards	-11.6543
▁carteras	-11.6544
▁compact	-11.6545
▁reduc	-11.6548
▁marking	-11.6552
▁Br	-11.6552
▁interna	-11.6554
card	-11.6556
▁criterios	-11.6556
▁Movimiento	-11.6558
▁tipografía	-11.6559
▁decoration	-11.656
▁prácticas	-11.656
▁Parámetro	-11.656
▁relacionada	-11.6561
▁ideal	-11.6564
racción	-11.6565
▁trans	-11.657
▁Gráficos	-11.6571
fo	-11.6571
cks	-11.6574
▁Curva	-11.6574
foo	-11.658
▁quedará	-11.6582
▁members	-11.6588
▁usarán	-11.659
▁mat	-11.6594
▁Days	-11.6597
debug	-11.6599
▁AR	-11.6601
Label	-11.6603
uni	-11.6604
Mostrar	-11.6604
remove	-11.6605
without	-11.6605
digit	-11.6606
▁resolv	-11.6608
gún	-11.6611
▁provee	-11.6612
▁(3)	-11.6616
nia	-11.6618
distributed	-11.662
▁especificados	-11.6627
▁fractions	-11.663
stan	-11.6634
amiento	-11.6635
rw	-11.664
▁Ajusta	-11.6645
▁Georgia	-11.6649
iano	-11.6649
▁correctas	-11.6652
▁Consulta	-11.6655
+1	-11.6657
▁Transport	-11.6658
▁ksysguard	-11.6658
▁uni	-11.6662
▁revert	-11.6662
+0	-11.6665
▁Martín	-11.667
▁straight	-11.667
▁Apache	-11.667
▁Beagle	-11.667
▁FALSE	-11.667
▁Frederik	-11.667
▁KFileReplace	-11.667
▁Piacentini	-11.667
▁Rectangle	-11.667
▁Rectángulo	-11.667
▁Release	-11.667
▁Teléfono	-11.667
▁Washington	-11.667
▁approach	-11.667
▁inválida	-11.667
▁ioslave	-11.667
▁ktuberling	-11.667
▁láser	-11.667
▁negativa	-11.667
▁protegida	-11.667
▁satisfactoria	-11.667
▁sidéreo	-11.667
▁óptico	-11.667
▁Guitar	-11.667
▁comodines	-11.667
▁explore	-11.667
▁Comenzando	-11.667
▁Cruz	-11.667
▁Caché	-11.667
▁Exact	-11.667
▁Untitled	-11.667
▁analysis	-11.667
▁correcciones	-11.667
▁emulator	-11.667
▁comunicaciones	-11.667
▁chemical	-11.667
▁extragear	-11.667
▁beneficiario	-11.667
▁aproximadamente	-11.667
▁Backward	-11.6671
▁newsserver	-11.6671
▁salidas	-11.6671
▁Libre	-11.6672
▁bigger	-11.6672
▁Descartar	-11.6672
▁Cantor	-11.6673
▁kdesktop	-11.6674
▁inténtelo	-11.6674
▁semanas	-11.6675
▁Brazil	-11.6675
▁DHCP	-11.6676
▁Congo	-11.6676
▁restricted	-11.6677
▁reside	-11.6677
▁denied	-11.6678
▁razonable	-11.6678
▁Encoder	-11.6678
▁maximized	-11.6678
▁olvide	-11.6678
▁Israel	-11.6679
▁DAO	-11.6679
▁Parley	-11.668
▁enviada	-11.668
46;	-11.6681
▁LPR	-11.6681
▁numéricos	-11.6682
boca	-11.6685
▁recuerde	-11.6686
▁Float	-11.6686
▁Intentar	-11.6686
▁Terminar	-11.6686
ndentation	-11.6687
▁lens	-11.6687
▁Shared	-11.6688
▁considere	-11.6689
▁Bank	-11.6691
▁organizer	-11.6691
▁assumed	-11.6691
▁manipulate	-11.6692
▁Intersect	-11.6693
▁au	-11.6693
▁covered	-11.6695
▁shall	-11.6695
▁Submit	-11.6696
▁Linear	-11.6696
▁añadidos	-11.6699
▁Ice	-11.67
▁querrá	-11.6706
▁scaled	-11.6708
sl	-11.6709
6;	-11.671
▁Socket	-11.671
0)	-11.6712
▁DOCTYPE	-11.6715
▁\\{	-11.6719
▁sur	-11.6721
VE	-11.6724
▁processor	-11.6725
▁interpret	-11.6726
▁necesarias	-11.6735
▁Haute	-11.6735
▁Segundo	-11.6737
▁recur	-11.6738
▁Gris	-11.6739
▁iniciarse	-11.6748
▁ejecutan	-11.6748
▁añadirán	-11.675
▁holes	-11.6751
▁Gas	-11.6753
▁cálculos	-11.6755
▁últimas	-11.6765
▁Kit	-11.6768
▁Dang	-11.6768
▁Associations	-11.6768
▁Semi	-11.6768
▁ramas	-11.6769
ficientemente	-11.677
▁2.1	-11.6771
eta	-11.6773
▁navegadores	-11.6775
▁verificado	-11.6775
AM	-11.6776
▁encode	-11.6782
ipe	-11.6784
▁zonas	-11.6788
▁primeros	-11.6789
▁procesa	-11.6792
▁modificarlo	-11.6805
▁payee	-11.6808
▁montado	-11.6808
▁válidas	-11.6808
▁salta	-11.681
▁Pel	-11.6811
pad	-11.6814
▁realizada	-11.6815
▁intentos	-11.6823
▁hijos	-11.6824
03	-11.6828
▁tocar	-11.683
ask	-11.6831
▁bueno	-11.6831
▁Thi	-11.6837
▁Mini	-11.684
aliasing	-11.6847
Really	-11.6849
AL	-11.6852
▁AI	-11.6852
normal	-11.6853
▁Pop	-11.6853
ecuador	-11.6853
Command	-11.6854
Web	-11.6854
Action	-11.6854
example	-11.6854
▁plataformas	-11.6854
▁33	-11.6855
▁contactar	-11.6856
▁Modos	-11.6858
array	-11.6859
dec	-11.686
▁digit	-11.686
▁filetype	-11.6865
▁Intenta	-11.6873
▁generates	-11.6881
▁rápidas	-11.6881
read	-11.6882
34	-11.6882
▁fly	-11.6887
▁defin	-11.6889
step	-11.6897
▁attack	-11.6902
▁instancias	-11.6905
▁Limpia	-11.6906
▁Histogram	-11.6907
▁hear	-11.6907
▁mensual	-11.6911
▁ignorará	-11.6911
▁Miss	-11.6912
▁recommend	-11.6913
▁procede	-11.6915
▁marcadas	-11.6915
jecución	-11.6916
▁authenticate	-11.6916
TS	-11.6916
▁bright	-11.6918
▁inmediata	-11.6918
▁bi	-11.6918
▁Bloq	-11.692
▁Charles	-11.692
▁blur	-11.692
▁alphabet	-11.692
▁BibTeX	-11.692
▁Máx	-11.692
consoleUserPerms	-11.692
▁Beccar	-11.692
▁Bischoff	-11.692
▁Carolina	-11.692
▁Geert	-11.692
▁Kiefer	-11.692
▁Manitoba	-11.692
▁Michigan	-11.692
▁Mueller	-11.692
▁Oriental	-11.692
▁Patrick	-11.692
▁Temperatura	-11.692
▁Wrote	-11.692
▁infraestructura	-11.692
▁mobile	-11.692
▁presupuesto	-11.692
▁profesor	-11.692
▁recuadro	-11.692
▁sleep	-11.692
▁startDateTime	-11.692
▁CGI	-11.692
▁Comparison	-11.692
czech	-11.692
▁bonus	-11.692
▁watchgnupg	-11.692
▁Instant	-11.692
safortunadamente	-11.692
▁Kalle	-11.692
▁impossible	-11.692
▁saldo	-11.692
▁enjoy	-11.692
▁Conjunto	-11.692
▁escribió	-11.692
▁Dmitr	-11.692
▁Parsing	-11.692
00000000	-11.692
▁Andrew	-11.692
▁TagXML	-11.6921
▁fair	-11.6921
▁lowercase	-11.6921
▁semi	-11.6921
Kutta	-11.6921
▁Borrador	-11.6922
▁perhaps	-11.6922
▁Handheld	-11.6923
▁Paragraph	-11.6923
▁Runge	-11.6923
▁presentaciones	-11.6923
▁octal	-11.6923
▁Backspace	-11.6924
▁globo	-11.6924
▁pub	-11.6924
▁Audi	-11.6924
▁printout	-11.6925
▁recomendada	-11.6926
Declare	-11.6927
▁Schema	-11.6929
▁recorte	-11.6929
▁irá	-11.693
▁Creación	-11.6931
▁geometry	-11.6933
▁Admin	-11.6933
▁grave	-11.6934
▁tilde	-11.6934
Int	-11.6935
▁Chile	-11.6935
▁inclusive	-11.6936
▁abbreviated	-11.6938
▁caras	-11.6938
▁Rotation	-11.6938
▁codificadores	-11.694
▁Away	-11.694
▁projection	-11.6941
▁gracias	-11.6941
▁attr	-11.6941
▁Adam	-11.6942
▁actividades	-11.6942
▁(%2).	-11.6944
▁termin	-11.6944
rad	-11.6947
enable	-11.6948
▁Walk	-11.695
▁branches	-11.695
▁oficina	-11.6953
tl	-11.6954
aribbean	-11.6954
oni	-11.6957
▁eject	-11.6958
▁participa	-11.696
▁visuales	-11.6961
▁vídeos	-11.6964
▁Solicitar	-11.6966
▁warnings	-11.6967
▁fire	-11.6967
uan	-11.6968
("2	-11.6969
▁suggestions	-11.6975
▁tercero	-11.6977
▁poster	-11.6982
git	-11.6983
▁2.5	-11.699
▁kmj	-11.6993
▁255	-11.6994
▁Sorting	-11.6995
atz	-11.6998
rey	-11.6998
▁FX	-11.7001
diff	-11.7009
▁ojos	-11.7024
antenga	-11.7025
▁Collections	-11.7027
▁secreta	-11.7028
inity	-11.7029
▁Sp	-11.7031
▁decorations	-11.7035
scribiendo	-11.7041
▁conocidas	-11.7041
▁mill	-11.7045
▁Mejora	-11.7047
▁echar	-11.7048
▁interesantes	-11.7049
▁Mailing	-11.7053
font	-11.7056
▁dinámica	-11.7062
▁Cambios	-11.7063
▁wanted	-11.7064
▁mistake	-11.7064
▁salto	-11.7064
▁Condition	-11.7064
▁átomo	-11.7066
▁matemático	-11.7066
Space	-11.7066
▁margins	-11.7066
▁Sonido	-11.7067
▁March	-11.7071
▁Searches	-11.7074
▁finales	-11.7076
hora	-11.7076
Me	-11.7078
▁AS	-11.7079
▁equation	-11.708
▁quizá	-11.7083
▁72	-11.7086
▁(%	-11.7087
NT	-11.7093
▁platforms	-11.7095
Local	-11.7104
▁listados	-11.7108
▁"/	-11.7109
Planet	-11.711
tooltip	-11.7111
description	-11.7111
after	-11.7111
empty	-11.7112
cvs	-11.7116
▁visualiza	-11.7116
▁KDED	-11.7118
▁animations	-11.7121
Le	-11.7129
▁Mak	-11.7129
either	-11.7131
▁Graba	-11.7132
▁800	-11.7132
▁activarlo	-11.7133
▁arena	-11.7134
▁vocabularios	-11.7138
▁Vol	-11.7138
▁Planifica	-11.7142
▁licencias	-11.7143
rich	-11.7145
▁posts	-11.7148
email	-11.7149
▁mostradas	-11.7149
▁Constant	-11.7155
▁Extend	-11.7157
▁breaks	-11.7158
49	-11.7159
▁mu	-11.716
▁Math	-11.7162
▁permanecerá	-11.7163
▁Visite	-11.7166
▁Render	-11.7166
ball	-11.7167
▁responde	-11.7167
hh	-11.7168
▁Fi	-11.7168
▁cámaras	-11.7169
▁restrict	-11.7169
▁interrupt	-11.7169
iso	-11.7171
▁atrapar	-11.7176
ignacio	-11.7176
supplicant	-11.7176
▁Abreviatura	-11.7176
▁Absolute	-11.7176
▁Cambie	-11.7176
▁Depurar	-11.7176
▁Poggi	-11.7176
▁Puerta	-11.7176
▁climb	-11.7176
▁deKorator	-11.7176
▁diversas	-11.7176
▁erróneo	-11.7176
▁excelente	-11.7176
▁messaging	-11.7176
▁modifique	-11.7176
▁poligonal	-11.7176
▁provincia	-11.7176
▁rehacer	-11.7176
▁synchronization	-11.7176
▁trapped	-11.7176
▁variance	-11.7176
▁Separador	-11.7176
▁Sphere	-11.7176
▁acceleration	-11.7176
▁assistant	-11.7176
▁divisor	-11.7176
▁derivative	-11.7176
▁Matrix	-11.7176
▁Opacidad	-11.7176
▁brush	-11.7176
Angular	-11.7177
▁newsreader	-11.7177
▁interacción	-11.7177
▁Autocorrection	-11.7177
▁Jeff	-11.7177
▁bridge	-11.7177
▁Francés	-11.7177
▁inspector	-11.7177
▁maze	-11.7177
▁Notificaciones	-11.7177
▁inverso	-11.7177
▁Sidereal	-11.7177
▁Nevada	-11.7177
▁Groupware	-11.7177
▁combobox	-11.7177
▁José	-11.7177
▁conecte	-11.7179
▁transformación	-11.7179
▁Alimentador	-11.7179
▁PostgreSQL	-11.7179
▁Beach	-11.7179
▁treasure	-11.7179
▁flor	-11.7179
▁Station	-11.7181
▁Gray	-11.7181
▁addressbook	-11.7182
▁ecuatoriales	-11.7182
▁Wallpaper	-11.7182
▁unavailable	-11.7183
▁autentificación	-11.7183
▁overall	-11.7183
▁Receiver	-11.7183
▁PCL	-11.7184
▁Exposure	-11.7186
▁Attributes	-11.7187
▁rec	-11.7188
▁Comprueb	-11.7188
▁Euro	-11.7189
▁offered	-11.7192
▁inches	-11.7193
▁Han	-11.7193
▁individualmente	-11.7194
▁Austria	-11.7195
▁Vertically	-11.7197
▁passes	-11.7201
▁globalmente	-11.7201
mount	-11.7202
▁Completed	-11.7203
▁maneja	-11.7203
IF	-11.7205
▁%4.	-11.7205
▁PAL	-11.7205
▁'%2	-11.7207
▁freely	-11.7208
▁says	-11.721
ongolia	-11.7211
▁rechazar	-11.7215
▁Russian	-11.7216
▁informado	-11.7223
▁proporcional	-11.7226
▁experimental	-11.7227
▁contacte	-11.7228
▁Están	-11.7231
▁Mist	-11.7232
▁Looking	-11.7236
▁Vic	-11.7239
▁STRING	-11.7241
umeration	-11.7246
▁marcha	-11.7251
Qt	-11.7254
▁rights	-11.7255
▁Inserte	-11.7256
OT	-11.7259
MP	-11.7261
sol	-11.7262
▁trucos	-11.7262
▁Pixels	-11.7262
▁descrito	-11.7268
▁holidays	-11.7268
▁kttsd	-11.7269
▁Andra	-11.7271
▁electrónicos	-11.7276
▁Av	-11.7277
▁entera	-11.7282
▁networking	-11.7282
▁quita	-11.7287
▁Pistas	-11.7288
])	-11.7291
125	-11.7297
▁nm	-11.7299
▁definitions	-11.73
SL	-11.7302
SS	-11.7302
fin	-11.731
▁Problem	-11.7313
▁she	-11.7314
▁formada	-11.7316
▁consum	-11.7317
ño	-11.7318
pho	-11.7319
▁Shade	-11.7321
▁%4)	-11.7322
lines	-11.7324
▁Servers	-11.7324
▁Ed	-11.7327
▁fail	-11.7327
char	-11.7328
▁atajo	-11.7329
▁covers	-11.7329
Ukraine	-11.7329
▁preference	-11.7332
▁2005,	-11.7336
▁indican	-11.734
▁deshabilita	-11.7341
system	-11.7346
ified	-11.7347
▁especificadas	-11.7348
▁handles	-11.7349
write	-11.7349
▁descansos	-11.735
▁Provider	-11.7354
profile	-11.7354
▁Unido	-11.7354
41	-11.7355
TeX	-11.7359
▁Parts	-11.7359
▁»),	-11.736
▁indicará	-11.7362
▁sides	-11.7369
▁habla	-11.7369
RGB	-11.737
pressure	-11.7373
▁colocará	-11.7373
STRING	-11.7373
Brown	-11.7374
repeat	-11.7374
Width	-11.7374
predeterminado	-11.7374
short	-11.7375
playlist	-11.7375
ono	-11.7376
▁integra	-11.7376
▁%1%2	-11.7377
more	-11.7381
Log	-11.7383
izada	-11.7384
entry	-11.7386
▁Gradiente	-11.7397
king	-11.7398
▁escribirá	-11.7404
tras	-11.741
▁%6	-11.741
pid	-11.7411
▁transfers	-11.7417
ire	-11.7417
▁asociadas	-11.7424
▁materia	-11.7424
▁lados	-11.7424
...]	-11.7425
▁Dig	-11.7428
▁cortos	-11.743
▁perderá	-11.743
▁temporizador	-11.7431
▁terminate	-11.7432
▁destroy	-11.7433
▁Instal	-11.7434
ther	-11.7434
▁limpia	-11.7435
▁Alternative	-11.7437
rounev	-11.7437
ugene	-11.7438
▁Nam	-11.7438
▁Grand	-11.7439
▁Chalendar	-11.744
▁Dalheimer	-11.744
▁Exercise	-11.744
▁Foomatic	-11.744
▁Género	-11.744
▁JPG	-11.744
▁Klipper	-11.744
▁Revisión	-11.744
▁Solution	-11.744
▁Technical	-11.744
▁Voice	-11.744
▁Wadham	-11.744
▁Wenninger	-11.744
▁comprimir	-11.744
▁corriendo	-11.744
▁devolvió	-11.744
▁excellent	-11.744
▁kdeaddons	-11.744
▁laberinto	-11.744
▁tabulación	-11.744
▁transcurrido	-11.744
▁tránsito	-11.744
▁vigilados	-11.744
▁Gamefu	-11.744
▁arcade	-11.744
▁daily	-11.744
▁decoding	-11.744
▁nadie	-11.744
▁aRts	-11.744
▁corra	-11.744
▁aumento	-11.744
▁Price	-11.744
▁Practice	-11.744
▁damage	-11.744
▁Directories	-11.744
▁dropped	-11.744
▁fade	-11.744
▁MacOS	-11.744
▁reboot	-11.744
▁InfoBox	-11.744
▁Supr	-11.744
▁Shaman	-11.744
▁DHT	-11.744
▁Unsupported	-11.7441
▁Interest	-11.7441
▁ICQ	-11.7441
▁Generating	-11.7441
▁visualization	-11.7441
▁paralelo	-11.7441
▁alineación	-11.7441
▁parcialmente	-11.7441
▁pirámide	-11.7442
ational	-11.7442
▁OpenSSL	-11.7442
▁novedades	-11.7442
▁mixto	-11.7443
▁measurement	-11.7444
▁Snapshot	-11.7444
▁composed	-11.7444
▁Administrator	-11.7444
▁María	-11.7444
▁finds	-11.7445
▁arquitectura	-11.7446
▁ra	-11.7446
▁KConfig	-11.7447
▁kicon	-11.7447
▁Montar	-11.7448
▁invitado	-11.7449
▁TODO	-11.7449
▁curves	-11.745
▁Genre	-11.745
▁explained	-11.7452
▁cambiarla	-11.7455
▁Combinar	-11.7456
▁analog	-11.7459
▁precede	-11.7459
▁optionally	-11.7459
400	-11.7459
▁alternate	-11.7459
Id	-11.7463
▁parsed	-11.7463
▁Direction	-11.7463
▁art	-11.7465
▁Ex	-11.7468
▁individually	-11.7469
▁orbital	-11.7469
▁inverse	-11.7469
▁frontal	-11.7474
▁solver	-11.7476
▁almacenará	-11.748
▁thanks	-11.748
▁answered	-11.7482
▁remotas	-11.7485
ref	-11.7485
▁launcher	-11.7486
▁released	-11.749
▁Colorado	-11.749
▁KDEDIRS	-11.7493
▁fl	-11.7494
DOS	-11.7496
▁bb	-11.7497
▁devolverá	-11.7497
▁finally	-11.7499
▁envíos	-11.7499
▁Mel	-11.7499
▁MX	-11.7501
▁Present	-11.7504
egypt	-11.7506
▁requieren	-11.7508
▁Elements	-11.751
▁recordatorios	-11.7516
▁disparar	-11.7519
avi	-11.752
▁circles	-11.7525
▁parada	-11.7526
▁num	-11.7529
▁fino	-11.7529
izaciones	-11.7535
▁moles	-11.7536
lado	-11.7536
▁Tracker	-11.7537
▁dobles	-11.7541
▁Wi	-11.7541
▁dispara	-11.7545
MY	-11.7547
▁solicitará	-11.7547
▁permanent	-11.7547
56	-11.7548
▁vale	-11.7548
oName	-11.755
iones	-11.7553
▁átomos	-11.7555
▁48	-11.7555
▁Bass	-11.7556
▁gui	-11.7559
▁west	-11.756
▁Keywords	-11.7562
▁Ping	-11.7563
▁trazos	-11.7567
▁Bal	-11.7573
31	-11.7583
▁Hours	-11.7585
▁recognize	-11.7586
compatible	-11.7588
▁res	-11.7595
▁resaltar	-11.7598
▁mirror	-11.7598
ónico	-11.76
SM	-11.7601
▁asignada	-11.7601
▁subrayado	-11.7603
▁ruleset	-11.7605
▁Song	-11.7606
tune	-11.7608
▁Dan	-11.7608
▁devolver	-11.7614
▁ge	-11.762
▁Desktops	-11.7622
▁quota	-11.7624
▁differ	-11.7624
▁Consider	-11.7631
▁Gr	-11.7634
▁(16	-11.7637
▁trama	-11.7641
create	-11.7641
Lesson	-11.7643
comment	-11.7643
hello	-11.7644
incluyendo	-11.7644
Left	-11.7644
▁exp	-11.7646
consulte	-11.7647
95	-11.7649
▁DB	-11.765
▁Segment	-11.7661
ML	-11.7662
▁copie	-11.7663
arse	-11.7669
▁'(	-11.767
▁pairs	-11.7672
▁corre	-11.7673
▁Times	-11.7681
▁pin	-11.7682
selected	-11.7692
▁estructuras	-11.7693
▁Mayo	-11.7694
▁instant	-11.7695
▁curso	-11.7695
▁oficial	-11.7701
▁sun	-11.7701
▁encounter	-11.7703
▁ojo	-11.7704
xclusive	-11.7705
▁Arizona	-11.771
▁Arrastrar	-11.771
▁Excluir	-11.771
▁Floppy	-11.771
▁Fácil	-11.771
▁Jersey	-11.771
▁KTurtle	-11.771
▁Leyendo	-11.771
▁Objetivo	-11.771
▁PPTP	-11.771
▁Pincel	-11.771
▁cluster	-11.771
▁ecuación	-11.771
▁especificó	-11.771
▁gateway	-11.771
▁institution	-11.771
▁perspectiva	-11.771
▁reproducido	-11.771
▁Actividad	-11.771
▁density	-11.771
foreign	-11.771
▁consecutive	-11.771
▁Comprobando	-11.771
▁teleport	-11.771
▁Utilit	-11.771
▁spectrum	-11.771
▁invertir	-11.771
▁cdrecord	-11.771
▁puro	-11.7711
▁rpm	-11.7711
▁Lancelot	-11.7711
▁Hyper	-11.7711
▁fingerprint	-11.7711
▁construction	-11.7712
▁faint	-11.7712
▁Pick	-11.7712
orway	-11.7712
▁diaria	-11.7713
▁medir	-11.7713
▁Inactive	-11.7714
lect	-11.7714
▁Night	-11.7714
▁Require	-11.7714
▁kdeutils	-11.7715
▁Texture	-11.7716
▁RedHat	-11.7716
▁experiencia	-11.7716
▁inserte	-11.7717
▁Japan	-11.7717
▁Resolver	-11.7717
▁Mean	-11.7717
▁Authorization	-11.7717
▁footer	-11.7718
ines	-11.7718
▁validación	-11.7718
▁classic	-11.7719
▁gamut	-11.772
▁Organization	-11.7721
▁Duplex	-11.7722
▁intentarlo	-11.7722
▁initially	-11.7722
▁denominado	-11.7723
▁coinciden	-11.7723
▁inactividad	-11.7725
▁maintained	-11.7726
▁commercial	-11.7726
▁associate	-11.7727
rib	-11.7727
▁Notice	-11.773
▁situados	-11.7733
▁hi	-11.7734
▁Auth	-11.7736
▁señales	-11.7738
▁véa	-11.7738
▁validate	-11.7738
▁LGPL	-11.774
▁archivado	-11.7741
nos	-11.7741
▁té	-11.7743
▁previsualiza	-11.7744
▁European	-11.7745
▁Boxes	-11.7748
▁exited	-11.7751
MI	-11.7751
dra	-11.7751
compress	-11.7753
▁Dragon	-11.7753
▁handy	-11.7753
▁Pol	-11.7753
tron	-11.7754
def	-11.7755
▁resized	-11.7756
▁Alex	-11.7767
▁fetching	-11.7768
marque	-11.7768
▁respond	-11.7771
▁Condado	-11.7771
▁shut	-11.7774
▁Tra	-11.7776
▁Retriev	-11.7776
▁booleano	-11.7777
▁implementa	-11.7778
▁DL	-11.7778
▁%2@	-11.7779
▁iniciales	-11.7781
▁producirá	-11.7782
▁incorpora	-11.7785
hour	-11.7786
▁apt	-11.7786
▁gira	-11.7786
pri	-11.7788
▁Wester	-11.7789
▁selecciones	-11.7793
▁posting	-11.7793
ably	-11.7796
▁altas	-11.7797
▁Gal	-11.7798
▁estrategias	-11.7803
▁Inici	-11.7805
rim	-11.7805
live	-11.7807
▁hope	-11.7808
folder	-11.7812
▁modificador	-11.7815
▁maneras	-11.782
deg	-11.7823
▁Sean	-11.7825
▁atajos	-11.7825
yn	-11.7825
▁permitirán	-11.7825
▁Eje	-11.7826
255	-11.7827
▁resolve	-11.7834
▁dichos	-11.7841
27	-11.7842
prop	-11.7843
jk	-11.7846
▁amplia	-11.7846
▁observar	-11.7855
(1	-11.7855
pass	-11.7855
▁instalarlo	-11.7861
▁cuadrada	-11.7865
▁stencils	-11.7865
ase	-11.7868
Sin	-11.7868
▁entrantes	-11.7868
▁negativos	-11.7871
inter	-11.7872
▁tip	-11.7872
▁estático	-11.7875
▁Frase	-11.7876
▁Diferencia	-11.7876
▁reconocido	-11.7876
▁rayo	-11.7877
▁Association	-11.7877
▁subdirectorio	-11.7877
▁Efecto	-11.7877
▁HD	-11.7877
▁descubrir	-11.7878
▁Letra	-11.7883
▁colas	-11.7887
▁pile	-11.7887
▁lentas	-11.7887
▁Places	-11.7889
ibl	-11.7889
facto	-11.7892
▁Walli	-11.7893
▁Tru	-11.7893
pat	-11.7896
order	-11.7898
old	-11.79
▁Labels	-11.7902
79	-11.7904
▁transferencias	-11.7905
RAM	-11.7905
▁Rob	-11.7909
▁Controla	-11.791
endrá	-11.791
{.	-11.7911
▁latitud	-11.7911
UP	-11.7911
▁PI	-11.7913
desktop	-11.7917
Desktop	-11.7918
▁cajas	-11.7918
Application	-11.7922
German	-11.7922
including	-11.7922
Unknown	-11.7922
anga	-11.7923
▁intervals	-11.7927
dump	-11.7928
slave	-11.7928
▁rol	-11.793
▁minimal	-11.7932
that	-11.7932
SSL	-11.7936
▁4.0	-11.794
▁reproducirlo	-11.794
▁descargados	-11.7942
▁2.3	-11.7947
▁reconoce	-11.7951
mic	-11.7953
▁opera	-11.7959
▁counts	-11.7959
0003	-11.7961
KY	-11.7961
▁Leo	-11.7963
35	-11.7963
(0.8	-11.7966
▁fe	-11.7967
count	-11.7968
▁Asigna	-11.7971
▁bank	-11.7971
▁Rellen	-11.7974
My	-11.7974
▁tangent	-11.7975
▁IA	-11.7977
▁portátil	-11.7979
▁Onda	-11.7982
▁integrate	-11.7982
▁tira	-11.7983
▁Marcador	-11.7985
erg	-11.7985
▁Amazon	-11.7985
atakonsult	-11.7988
lvdalens	-11.7988
▁Backgammon	-11.7988
▁Cursiva	-11.7988
▁Espaciado	-11.7988
▁Fuzzy	-11.7988
▁International	-11.7988
▁MusicBrainz	-11.7988
▁Ratón	-11.7988
▁Teclee	-11.7988
▁WAN	-11.7988
▁chatarra	-11.7988
▁descargue	-11.7988
▁devuelto	-11.7988
▁identities	-11.7988
▁increasing	-11.7988
▁inválido	-11.7988
▁magenta	-11.7988
▁migración	-11.7988
▁navigator	-11.7988
▁qdbus	-11.7988
▁Course	-11.7988
▁pstops	-11.7988
▁untrusted	-11.7988
▁Tidy	-11.7988
▁Body	-11.7988
▁Klaus	-11.7988
▁Kross	-11.7988
▁densidad	-11.7988
▁webcam	-11.7988
▁Stuff	-11.7988
▁Dutch	-11.7988
openpgp	-11.7988
▁deviation	-11.7988
▁jugando	-11.7988
▁Footer	-11.7988
▁seguida	-11.7988
▁cdrom	-11.7988
▁salte	-11.7988
▁Florida	-11.7988
▁subdirectories	-11.7988
▁kxsldbg	-11.7988
▁autocompletion	-11.7988
▁Geiser	-11.7988
▁arrástrelo	-11.7988
▁Vega	-11.7988
▁callback	-11.7989
▁charge	-11.7989
▁effective	-11.7989
▁bzip	-11.7989
▁Reinhart	-11.7989
▁RPM	-11.7989
▁rarely	-11.7989
▁Executable	-11.7989
▁sentencia	-11.7989
▁Frank	-11.7989
▁Eject	-11.7989
▁Bond	-11.799
▁Dump	-11.799
▁Incorrect	-11.799
▁Winter	-11.7991
▁Existing	-11.7991
atvia	-11.7991
▁cgi	-11.7991
▁Mime	-11.7991
▁Samoa	-11.7992
▁4.01	-11.7992
▁Desactivado	-11.7993
▁discussed	-11.7993
▁Outline	-11.7994
▁Generador	-11.7994
▁kooka	-11.7994
▁Tone	-11.7995
▁folding	-11.7995
▁kdepim	-11.7995
▁almacén	-11.7996
▁Traditional	-11.7996
rdless	-11.7997
▁skipped	-11.7998
▁programadores	-11.7998
▁pegado	-11.7998
▁ZIP	-11.8
▁Relleno	-11.8001
▁reasonable	-11.8001
▁textual	-11.8001
▁nearly	-11.8001
▁Separator	-11.8002
▁Identidades	-11.8002
BJ	-11.8004
▁strict	-11.8005
kov	-11.8007
▁organized	-11.8007
▁reader	-11.8009
▁Horizontally	-11.8009
▁Rou	-11.8011
▁guardadas	-11.8015
▁tenido	-11.8016
▁constantes	-11.8019
▁GSL	-11.8021
\@	-11.8025
▁decodificación	-11.8025
▁Mid	-11.8027
▁rectángulos	-11.8027
▁Expire	-11.8031
▁Slider	-11.8032
▁monthly	-11.8034
▁unlock	-11.8035
▁llega	-11.8035
PC	-11.8037
signe	-11.8038
len	-11.8039
▁allá	-11.804
▁TR	-11.804
▁passing	-11.8043
▁HEX	-11.8044
▁yes	-11.8046
▁Matching	-11.8048
▁INT	-11.8048
▁inform	-11.8048
▁dd	-11.8048
▁entrega	-11.8049
▁requisitos	-11.8049
▁IN	-11.805
▁AB	-11.8051
▁naves	-11.8052
▁Connections	-11.8054
▁Sheets	-11.8056
▁42	-11.8058
▁fuertes	-11.8059
▁locking	-11.8059
▁dependen	-11.8059
▁accede	-11.8062
▁Interfaces	-11.8063
▁pasted	-11.8065
▁enteros	-11.8065
▁DATE	-11.8066
▁omite	-11.8069
▁Dese	-11.8069
▁coincidentes	-11.8072
DE	-11.8078
▁libras	-11.808
▁añadidas	-11.8084
▁bo	-11.8085
iv	-11.8095
▁rayos	-11.81
▁Nova	-11.8107
ntegración	-11.8107
▁capturas	-11.8107
▁momentos	-11.8108
▁redimensiona	-11.8113
]=	-11.8113
▁quitar	-11.8116
▁reache	-11.8119
Init	-11.8119
▁terminales	-11.8119
▁ocurrencias	-11.8122
▁hu	-11.8124
▁facilita	-11.8126
▁seven	-11.8129
▁ls	-11.8135
▁1.3	-11.8138
▁Imported	-11.814
▁figuras	-11.8144
▁clicks	-11.815
through	-11.815
ducción	-11.8153
▁Scripting	-11.8154
▁trick	-11.8155
▁informativos	-11.8157
▁previo	-11.816
▁Animation	-11.8161
▁extremo	-11.8161
▁advertencia	-11.8162
▁calculará	-11.8162
▁Palabra	-11.8163
▁distinta	-11.8163
▁Fila	-11.8165
▁conectada	-11.8165
ING	-11.8166
▁stone	-11.8167
▁fondos	-11.8167
▁Wave	-11.8168
▁almacenado	-11.8169
▁pops	-11.817
▁cambiarse	-11.8175
▁cargada	-11.8176
▁walls	-11.8179
2:	-11.8181
full	-11.8184
▁******	-11.8184
▁sprites	-11.8185
▁arm	-11.819
▁Alternate	-11.8192
▁Successful	-11.8194
▁mando	-11.8199
▁Muev	-11.8206
localhost	-11.8208
Path	-11.8209
Date	-11.8213
▁ports	-11.8218
▁ti	-11.8224
Up	-11.823
▁Uncheck	-11.8246
▁abandonar	-11.825
settings	-11.8253
(1.2	-11.8257
▁Mezcla	-11.8258
▁liter	-11.826
where	-11.8261
▁subscribe	-11.8262
bla	-11.8265
etween	-11.8267
▁Own	-11.8269
▁Transparent	-11.827
▁dan	-11.8271
▁recursiva	-11.8272
▁Ingres	-11.8272
▁Energy	-11.8273
jumpingcube	-11.8273
▁2006-2009	-11.8273
▁2007-2009	-11.8273
▁Apertura	-11.8273
▁Cámara	-11.8273
▁Galaxy	-11.8273
▁Geometry	-11.8273
▁Instruction	-11.8273
▁Investment	-11.8273
▁Jimenez	-11.8273
▁KCachegrind	-11.8273
▁Kelvin	-11.8273
▁Monochrome	-11.8273
▁PalmDOC	-11.8273
▁Recipient	-11.8273
▁Rejilla	-11.8273
▁Septentrional	-11.8273
▁Shuffle	-11.8273
▁Umbral	-11.8273
▁asterisco	-11.8273
▁cuarto	-11.8273
▁financial	-11.8273
▁habitación	-11.8273
▁kajongg	-11.8273
▁kbandwidth	-11.8273
▁sangría	-11.8273
▁Mínimo	-11.8273
▁Reproduce	-11.8273
▁Vendor	-11.8273
▁potential	-11.8273
▁volcado	-11.8273
▁dependencies	-11.8273
▁abriendo	-11.8273
▁Bueno	-11.8273
▁povray	-11.8273
▁llegue	-11.8273
▁mantenedor	-11.8273
▁elecciones	-11.8273
▁unchanged	-11.8273
▁envió	-11.8273
▁multisesión	-11.8273
▁international	-11.8273
▁atención	-11.8273
▁awarded	-11.8273
▁recurring	-11.8273
▁interrogación	-11.8274
▁Snap	-11.8274
▁annma	-11.8274
mber	-11.8274
usepackage	-11.8274
▁libxslt	-11.8274
▁Egyptian	-11.8274
▁lejos	-11.8274
bengal	-11.8274
▁transición	-11.8274
▁discussion	-11.8274
▁logarithmic	-11.8274
▁Omitir	-11.8274
▁pensar	-11.8275
▁diez	-11.8275
▁transformation	-11.8275
▁conquer	-11.8275
▁recursivamente	-11.8275
▁Neil	-11.8276
▁Planificación	-11.8276
▁maximizada	-11.8276
▁spot	-11.8276
▁Runner	-11.8276
ili	-11.8277
▁Raise	-11.8277
▁correctos	-11.8277
▁independently	-11.8278
▁Croatia	-11.8278
▁Currency	-11.8278
▁Piano	-11.8279
▁EMail	-11.8279
▁kwatchgnupg	-11.828
▁webpage	-11.828
▁fourth	-11.828
▁movido	-11.828
▁concuerda	-11.8281
▁Relate	-11.8281
▁cre	-11.8282
▁Jr	-11.8282
▁GID	-11.8283
▁Payment	-11.8283
▁Ejecutando	-11.8283
▁Stack	-11.8283
▁tail	-11.8283
▁Negative	-11.8284
▁Dice	-11.8284
▁Constraint	-11.8284
▁reserved	-11.8284
▁internamente	-11.8284
▁prepare	-11.8286
▁127.0.0.1	-11.8286
▁darle	-11.8287
▁Libro	-11.8287
▁Disconnected	-11.8288
▁County	-11.8288
▁Ireland	-11.8288
ista	-11.829
Go	-11.829
▁ciudades	-11.829
▁estación	-11.8292
▁regexp	-11.8292
▁pgp	-11.8292
▁Specific	-11.8292
▁usb	-11.8294
▁visite	-11.8296
▁centrado	-11.8298
▁joined	-11.8298
▁continuará	-11.83
▁computadora	-11.8301
▁Santo	-11.8302
▁utilidades	-11.8303
▁publicado	-11.8305
▁Packages	-11.8305
▁python	-11.8307
▁ingresar	-11.831
board	-11.8311
xc	-11.8313
▁anónimo	-11.8314
▁Mp	-11.8314
▁Bro	-11.8318
▁customized	-11.8322
▁polo	-11.8326
▁240	-11.8331
▁detiene	-11.8332
aName	-11.8333
chile	-11.8334
fra	-11.8334
▁reduced	-11.8335
eps	-11.8335
▁Describe	-11.8338
bot	-11.8341
▁desactivadas	-11.8341
▁books	-11.8341
▁slave	-11.8342
▁resolved	-11.8344
▁dependerá	-11.8344
▁minas	-11.8345
▁sudo	-11.8346
▁Brown	-11.8348
▁Realizar	-11.8349
enchi	-11.835
)=	-11.8357
▁aplicado	-11.8358
▁Quota	-11.836
36	-11.836
▁Forms	-11.8361
▁Stars	-11.8361
▁clon	-11.8362
▁Fall	-11.8363
▁Bre	-11.8364
▁mostly	-11.837
bre	-11.8372
▁uploading	-11.8374
,000	-11.8375
▁sectors	-11.8376
▁Boy	-11.8381
▁visita	-11.8383
rar	-11.8383
▁árboles	-11.8388
▁totales	-11.8389
▁performing	-11.8391
Archivo	-11.8392
darse	-11.8393
▁imp	-11.8393
ments	-11.8394
▁escritos	-11.8399
▁Rip	-11.8403
▁solicitar	-11.8405
lockwise	-11.8407
▁positivos	-11.8408
▁trozos	-11.8408
node	-11.841
▁editado	-11.8413
▁defina	-11.8428
ehl	-11.8433
▁knows	-11.8435
▁Karl	-11.8435
▁ideas	-11.8437
▁arrastra	-11.8437
pop	-11.8439
▁generat	-11.8442
▁ganador	-11.8447
section	-11.8448
▁Qui	-11.8452
▁baraja	-11.8455
▁behave	-11.8455
▁Parche	-11.8455
▁Flag	-11.8456
▁hija	-11.8456
▁galaxia	-11.8457
▁dh	-11.8459
▁exercises	-11.8461
▁pasada	-11.8462
▁filtered	-11.8469
zip	-11.8471
▁compar	-11.8472
location	-11.848
udi	-11.8482
▁Ber	-11.8482
▁previsualizar	-11.8486
save	-11.8496
configure	-11.85
Graphics	-11.85
kdewebdev	-11.8501
license	-11.8502
Track	-11.8502
Number	-11.8502
▁Fu	-11.8502
common	-11.8503
BIN	-11.8504
Right	-11.8504
▁sequences	-11.8508
▁exportado	-11.8511
bell	-11.8513
▁cambian	-11.8517
▁Contacto	-11.8519
DP	-11.8519
▁escucha	-11.8521
▁recomenda	-11.8523
▁centrar	-11.8527
"-	-11.8527
▁liquid	-11.853
param	-11.8533
▁banderas	-11.8533
▁independientes	-11.8537
900	-11.8543
▁Expert	-11.8546
▁dim	-11.8549
▁Aplica	-11.855
▁Scot	-11.8554
▁Circuit	-11.8555
▁Clic	-11.8557
▁Utilidad	-11.8559
▁2.4	-11.8559
▁simulate	-11.8561
▁descriptiv	-11.8564
▁desarrollado	-11.8565
▁Jens	-11.8565
▁Modifica	-11.8565
▁periódica	-11.8565
▁compara	-11.8566
046	-11.8567
▁smart	-11.8567
▁oportun	-11.8567
ffff	-11.8567
▁xawtv	-11.8567
▁Jerem	-11.8567
▁Jylland	-11.8567
▁Kodak	-11.8567
▁KolourPaint	-11.8567
▁Kompare	-11.8567
▁Láctea	-11.8567
▁SVCD	-11.8567
▁Silenciar	-11.8567
▁Tanghus	-11.8567
▁Texas	-11.8567
▁acorde	-11.8567
▁adjacent	-11.8567
▁astronómica	-11.8567
▁atómico	-11.8567
▁desviación	-11.8567
▁empiece	-11.8567
▁introdujo	-11.8567
▁kolourpaint	-11.8567
▁molecule	-11.8567
▁mummies	-11.8567
▁ocurra	-11.8567
▁profiling	-11.8567
▁pyramid	-11.8567
▁skrooge	-11.8567
▁Albers	-11.8567
▁KMLDonkey	-11.8567
▁Posible	-11.8567
▁Sensor	-11.8567
▁definiciones	-11.8567
▁Consola	-11.8567
▁Novell	-11.8567
▁geométrico	-11.8567
▁LinTV	-11.8567
▁kpf	-11.8567
▁Protege	-11.8567
▁Bandera	-11.8568
▁Evolution	-11.8568
▁KNotes	-11.8568
▁temporarily	-11.8568
dlg	-11.8568
▁radical	-11.8568
▁kurt	-11.8568
▁examine	-11.8568
▁Sufijo	-11.8568
▁pozo	-11.8568
▁SQLite	-11.8568
▁bovo	-11.8568
▁Ten	-11.8568
▁Egypt	-11.8568
▁Generator	-11.8568
▁submitted	-11.8568
▁Logging	-11.8569
▁kwallet	-11.8569
▁Ripping	-11.8569
tpd	-11.8569
▁cleanup	-11.8569
▁Preserve	-11.8569
▁revisar	-11.8569
▁rectangles	-11.857
▁Descifrar	-11.857
▁fullscreen	-11.857
▁Mariluis	-11.857
▁preceding	-11.857
▁Solaris	-11.8571
▁Oeste	-11.8571
▁Difficulty	-11.8571
▁Umbrello	-11.8571
▁XPath	-11.8571
▁exceeded	-11.8573
▁kilo	-11.8573
oul	-11.8574
▁musical	-11.8574
▁omitir	-11.8574
▁preparada	-11.8574
▁Jupiter	-11.8574
▁Ejecutable	-11.8575
▁Formatear	-11.8575
ulo	-11.8575
▁Luz	-11.8575
▁kmenuedit	-11.8575
▁rejected	-11.8576
▁delimiter	-11.8577
▁kmobiletools	-11.8578
▁cvsignore	-11.8579
arg	-11.8579
▁Circuito	-11.8579
irc	-11.858
▁exposure	-11.858
▁Rosa	-11.8581
▁accordingly	-11.8585
▁Loan	-11.8586
▁initialized	-11.8586
▁Watched	-11.8587
versa	-11.8587
▁issued	-11.8588
▁Terminado	-11.8588
▁unlimited	-11.8589
▁css	-11.8589
▁integrada	-11.859
▁outbox	-11.8592
▁2003,	-11.8592
▁Cita	-11.8594
CA	-11.8594
▁Attendees	-11.8596
▁Portugal	-11.8596
▁Ventanas	-11.8598
▁gstreamer	-11.8598
▁Aborting	-11.8599
▁restarted	-11.8599
▁visited	-11.8599
▁tantas	-11.86
▁browsers	-11.8601
uy	-11.8601
▁atomic	-11.8601
▁sustituir	-11.8602
Gadu	-11.8604
▁Specified	-11.8606
cant	-11.8608
▁maybe	-11.861
▁abc	-11.8613
▁Exporting	-11.8613
ija	-11.8614
▁Inline	-11.8614
cker	-11.8616
dif	-11.862
▁calc	-11.8637
lín	-11.8642
▁pida	-11.8644
▁Alarmas	-11.8646
▁wind	-11.8646
▁ecuador	-11.8646
▁á	-11.8647
2.0	-11.8648
▁oz	-11.8648
▁momias	-11.8649
▁alinea	-11.8652
▁eliminadas	-11.8652
▁produced	-11.8653
▁domains	-11.8655
▁piel	-11.8655
uring	-11.8661
gio	-11.8662
sec	-11.8664
▁faltan	-11.8665
Ma	-11.8669
▁exits	-11.8673
▁Detectar	-11.8678
▁converting	-11.8681
DIN	-11.8685
▁presentará	-11.8687
▁Ant	-11.8687
▁differently	-11.8688
ky	-11.8693
▁Trata	-11.8701
▁Longitude	-11.8702
ario	-11.871
▁generador	-11.8712
TR	-11.8716
▁monitoring	-11.8719
▁emula	-11.8721
▁relativos	-11.8724
▁Yo	-11.8727
▁mesa	-11.8729
▁ganado	-11.8729
▁Prev	-11.873
3;)	-11.8733
▁dat	-11.8739
▁Bir	-11.8741
num	-11.8741
▁utiliz	-11.8747
▁emoticon	-11.8749
▁Cola	-11.8752
▁edite	-11.8754
▁RE	-11.8754
▁duplicado	-11.8762
▁xmi	-11.8769
▁Dir	-11.8769
▁Problema	-11.8774
▁Exporta	-11.8776
▁cycle	-11.8776
▁círculos	-11.8778
led	-11.8783
▁aspects	-11.8784
▁(5)	-11.8791
▁calculado	-11.8793
reference	-11.8798
ities	-11.8798
▁enviarlo	-11.88
▁ring	-11.88
Variance	-11.8802
Job	-11.8804
ISO	-11.8805
Certificate	-11.8805
related	-11.8805
highlight	-11.8805
▁Listo	-11.8805
background	-11.8805
PostScript	-11.8805
Point	-11.8805
Next	-11.8805
unknown	-11.8805
▁"1	-11.8806
▁Tono	-11.8806
▁ttf	-11.8807
Que	-11.8807
will	-11.8807
shell	-11.8807
▁Dado	-11.881
shared	-11.8811
called	-11.8811
filename	-11.8813
▁Listar	-11.8816
▁rota	-11.8817
://	-11.8818
▁Grouping	-11.8818
LD	-11.8818
▁repositorios	-11.8819
generated	-11.8822
▁machines	-11.8831
sent	-11.8833
▁longitude	-11.8834
Texto	-11.8836
▁agujeros	-11.8839
lists	-11.8839
pu	-11.8846
▁nor	-11.8849
Set	-11.8851
▁prime	-11.8854
▁continua	-11.8854
▁imprime	-11.8855
rgentina	-11.8857
64;	-11.8859
Ogg	-11.8859
▁umbral	-11.8862
damente	-11.8862
▁débil	-11.8862
▁Flor	-11.8864
▁largos	-11.8865
▁proporcionados	-11.8866
▁ignoran	-11.8867
ulgaria	-11.8867
▁accurate	-11.8867
ariluis	-11.8867
▁Tre	-11.8869
▁XXX	-11.887
guatemal	-11.887
▁kalgebra	-11.887
paraguay	-11.887
▁Identificación	-11.887
▁Illinois	-11.887
▁Individual	-11.887
▁Jigsaw	-11.887
▁Júpiter	-11.887
▁KIPI	-11.887
▁KMouth	-11.887
▁Meridian	-11.887
▁Pound	-11.887
▁SFTP	-11.887
▁Scope	-11.887
▁bibliografía	-11.887
▁corriente	-11.887
▁ecuaciones	-11.887
▁galaxy	-11.887
▁icecream	-11.887
▁meteorológica	-11.887
▁obtuvo	-11.887
▁overwritten	-11.887
▁probabilidad	-11.887
▁protegido	-11.887
▁removable	-11.887
▁retroceder	-11.887
▁scoring	-11.887
▁slope	-11.887
▁Above	-11.887
▁audible	-11.887
▁actúa	-11.887
▁Distingui	-11.887
▁Furthermore	-11.887
shanbe	-11.8871
▁Fabricante	-11.8871
▁pintura	-11.8871
▁Fade	-11.8871
▁interactivo	-11.8871
▁descriptor	-11.8871
▁negociación	-11.8871
▁huella	-11.8871
▁Performance	-11.8871
▁wave	-11.8871
▁comfortable	-11.8871
▁selecciónelo	-11.8871
▁Busque	-11.8871
▁Papelera	-11.8871
▁plegado	-11.8871
▁playground	-11.8871
▁UTC	-11.8871
▁freenode	-11.8871
▁vendor	-11.8871
▁Restablecer	-11.8872
▁Boot	-11.8872
▁held	-11.8872
mission	-11.8872
▁Retroceder	-11.8872
▁gusto	-11.8872
▁ChangeLog	-11.8872
▁specifically	-11.8872
▁monitorización	-11.8872
▁III	-11.8872
▁Objective	-11.8872
▁Secondary	-11.8872
▁banco	-11.8873
▁kick	-11.8873
▁trasera	-11.8873
▁Maintain	-11.8873
▁annotate	-11.8873
▁continúe	-11.8874
▁gramos	-11.8874
▁condicionales	-11.8876
▁Voltear	-11.8876
▁espirales	-11.8877
▁cifrada	-11.8877
▁LILO	-11.8878
core	-11.8878
▁accidental	-11.8879
▁Generando	-11.8879
▁llegado	-11.8879
▁líquido	-11.888
match	-11.8881
▁mono	-11.8882
▁subscribed	-11.8883
▁libres	-11.8885
▁ksysguardd	-11.8885
▁Escalado	-11.8885
▁div	-11.8887
▁Builder	-11.8887
▁confirmar	-11.8887
▁cities	-11.8887
▁empresa	-11.8888
06	-11.8888
▁entirely	-11.8889
▁cartucho	-11.889
▁Rendering	-11.8891
▁reconocer	-11.8893
▁Gen	-11.8893
▁Trans	-11.8896
perc	-11.8898
▁sugiere	-11.8898
▁Norw	-11.8898
▁Hol	-11.8899
MENT	-11.8899
▁rellenado	-11.89
▁intend	-11.8902
Move	-11.8903
▁seeking	-11.8903
▁chris	-11.8905
unch	-11.8906
▁stdin	-11.8906
▁MHz	-11.8907
▁cleared	-11.891
TH	-11.8912
▁finalmente	-11.8912
▁outline	-11.8914
▁mala	-11.8914
▁zoomed	-11.8916
▁Conflicto	-11.8918
grammatical	-11.8921
▁dura	-11.8924
▁Cookies	-11.8924
▁rebuild	-11.893
▁Harri	-11.8931
▁switched	-11.8931
▁Added	-11.8933
▁simula	-11.8941
▁apuntar	-11.8942
▁desaparecerá	-11.8945
1200	-11.8952
▁'#	-11.8953
ED	-11.8955
▁latitude	-11.8955
▁Reason	-11.8956
▁modems	-11.8957
[/	-11.8959
▁Finland	-11.8962
▁kB	-11.8965
▁recomendado	-11.8967
▁Eventos	-11.8967
merge	-11.8969
3-	-11.897
▁plasmoids	-11.8971
▁Role	-11.8971
▁accounting	-11.8972
▁mejora	-11.8975
▁Annotate	-11.8975
▁emplear	-11.8977
▁Paquetes	-11.8979
▁arg	-11.898
▁Too	-11.8985
▁privadas	-11.8986
▁subdirectorios	-11.8993
▁piles	-11.8994
rece	-11.8994
▁Quote	-11.8994
▁dominios	-11.8995
▁Fl	-11.8996
▁Límites	-11.8997
▁Var	-11.9011
rip	-11.9014
▁estaciones	-11.9015
▁verán	-11.9019
▁Tres	-11.902
▁configurarse	-11.9023
▁Cape	-11.9029
▁Mire	-11.9033
▁India	-11.9036
▁ended	-11.9039
▁tea	-11.9043
▁continent	-11.905
dict	-11.9058
▁incluidos	-11.9059
▁mails	-11.9062
▁King	-11.9069
▁inalámbrica	-11.907
▁Favorite	-11.9071
▁loads	-11.9071
▁roja	-11.9072
▁Paquete	-11.9072
▁holiday	-11.9072
pac	-11.9072
yi	-11.9076
▁js	-11.908
▁Side	-11.9083
▁Env	-11.9092
.000	-11.9092
Project	-11.9092
▁gestiona	-11.9097
96	-11.9101
▁Tin	-11.9101
term	-11.9101
▁complejos	-11.9101
placing	-11.9102
▁stat	-11.9103
▁Mod	-11.9107
device	-11.9107
IX	-11.9109
▁backwards	-11.9112
reas	-11.9115
mol	-11.9115
coordinate	-11.9117
Dibujar	-11.9117
convert	-11.9117
collection	-11.9117
random	-11.9117
program	-11.9118
Guardar	-11.9118
photo	-11.912
peru	-11.913
igu	-11.9134
74	-11.9135
▁dm	-11.9136
▁Downloads	-11.9139
dado	-11.9147
▁1.7	-11.9148
scale	-11.9151
[...]
